/* Copyright 2019 The TensorFlow Authors. All Rights Reserved.

Licensed under the Apache License, Version 2.0 (the "License");
you may not use this file except in compliance with the License.
You may obtain a copy of the License at

    http://www.apache.org/licenses/LICENSE-2.0

Unless required by applicable law or agreed to in writing, software
distributed under the License is distributed on an "AS IS" BASIS,
WITHOUT WARRANTIES OR CONDITIONS OF ANY KIND, either express or implied.
See the License for the specific language governing permissions and
limitations under the License.
==============================================================================*/

// Automatically created from a TensorFlow Lite flatbuffer using the command:
// xxd -i fall_model_f46.tflite > fall_model_f46.cc

#include "fall_model_f46.h"

// We need to keep the data array aligned on some architectures.
#ifdef __has_attribute
#define HAVE_ATTRIBUTE(x) __has_attribute(x)
#else
#define HAVE_ATTRIBUTE(x) 0
#endif
#if HAVE_ATTRIBUTE(aligned) || (defined(__GNUC__) && !defined(__clang__))
#define DATA_ALIGN_ATTRIBUTE __attribute__((aligned(4)))
#else
#define DATA_ALIGN_ATTRIBUTE
#endif

// This is the new model:
const unsigned char fall_model_data[] DATA_ALIGN_ATTRIBUTE = {
  0x08, 0x00, 0x00, 0x00, 0x54, 0x46, 0x4c, 0x33, 0x8e, 0xff, 0xff, 0xff,
  0x03, 0x00, 0x00, 0x00, 0x10, 0x00, 0x00, 0x00, 0x1c, 0x00, 0x00, 0x00,
  0x4c, 0x00, 0x00, 0x00, 0x1c, 0x00, 0x00, 0x00, 0x03, 0x00, 0x00, 0x00,
  0x94, 0x02, 0x00, 0x00, 0xf0, 0x01, 0x00, 0x00, 0x08, 0x01, 0x00, 0x00,
  0x01, 0x00, 0x00, 0x00, 0x54, 0x00, 0x00, 0x00, 0x0a, 0x00, 0x00, 0x00,
  0xcc, 0x1d, 0x00, 0x00, 0xc8, 0x1d, 0x00, 0x00, 0x94, 0x1c, 0x00, 0x00,
  0x24, 0x1c, 0x00, 0x00, 0x18, 0x04, 0x00, 0x00, 0xbc, 0x02, 0x00, 0x00,
  0xb4, 0x1d, 0x00, 0x00, 0xb0, 0x1d, 0x00, 0x00, 0xac, 0x1d, 0x00, 0x00,
  0xa8, 0x1d, 0x00, 0x00, 0x0f, 0x00, 0x00, 0x00, 0x4d, 0x4c, 0x49, 0x52,
  0x20, 0x43, 0x6f, 0x6e, 0x76, 0x65, 0x72, 0x74, 0x65, 0x64, 0x2e, 0x00,
  0x00, 0x00, 0x0e, 0x00, 0x18, 0x00, 0x04, 0x00, 0x08, 0x00, 0x0c, 0x00,
  0x10, 0x00, 0x14, 0x00, 0x0e, 0x00, 0x00, 0x00, 0x14, 0x00, 0x00, 0x00,
  0x38, 0x00, 0x00, 0x00, 0x3c, 0x00, 0x00, 0x00, 0x40, 0x00, 0x00, 0x00,
  0x50, 0x00, 0x00, 0x00, 0x09, 0x00, 0x00, 0x00, 0x28, 0x1d, 0x00, 0x00,
  0xc0, 0x1c, 0x00, 0x00, 0xd4, 0x1b, 0x00, 0x00, 0x78, 0x1b, 0x00, 0x00,
  0x6c, 0x03, 0x00, 0x00, 0x0c, 0x02, 0x00, 0x00, 0x68, 0x01, 0x00, 0x00,
  0xe4, 0x00, 0x00, 0x00, 0x7c, 0x00, 0x00, 0x00, 0x01, 0x00, 0x00, 0x00,
  0x00, 0x00, 0x00, 0x00, 0x01, 0x00, 0x00, 0x00, 0x08, 0x00, 0x00, 0x00,
  0x04, 0x00, 0x00, 0x00, 0xa0, 0x01, 0x00, 0x00, 0x18, 0x01, 0x00, 0x00,
  0x90, 0x00, 0x00, 0x00, 0x1c, 0x00, 0x00, 0x00, 0x04, 0x00, 0x00, 0x00,
  0x6d, 0x61, 0x69, 0x6e, 0x00, 0x00, 0x0e, 0x00, 0x18, 0x00, 0x08, 0x00,
  0x0c, 0x00, 0x10, 0x00, 0x07, 0x00, 0x14, 0x00, 0x0e, 0x00, 0x00, 0x00,
  0x00, 0x00, 0x00, 0x09, 0x02, 0x00, 0x00, 0x00, 0x1c, 0x00, 0x00, 0x00,
  0x10, 0x00, 0x00, 0x00, 0x04, 0x00, 0x00, 0x00, 0x4a, 0xe4, 0xff, 0xff,
  0x00, 0x00, 0x80, 0x3f, 0x01, 0x00, 0x00, 0x00, 0x08, 0x00, 0x00, 0x00,
  0x01, 0x00, 0x00, 0x00, 0x07, 0x00, 0x00, 0x00, 0x86, 0xfe, 0xff, 0xff,
  0x00, 0x00, 0x00, 0x19, 0x01, 0x00, 0x00, 0x00, 0x82, 0xe3, 0xff, 0xff,
  0x10, 0x00, 0x00, 0x00, 0x09, 0x00, 0x00, 0x00, 0x14, 0x00, 0x00, 0x00,
  0x20, 0x00, 0x00, 0x00, 0x02, 0x00, 0x00, 0x00, 0x01, 0x00, 0x00, 0x00,
  0x02, 0x00, 0x00, 0x00, 0x08, 0x00, 0x00, 0x00, 0x49, 0x64, 0x65, 0x6e,
  0x74, 0x69, 0x74, 0x79, 0x00, 0x00, 0x00, 0x00, 0x6c, 0xe3, 0xff, 0xff,
  0x06, 0xff, 0xff, 0xff, 0x00, 0x00, 0x00, 0x08, 0x18, 0x00, 0x00, 0x00,
  0x0c, 0x00, 0x00, 0x00, 0x04, 0x00, 0x00, 0x00, 0x84, 0xe3, 0xff, 0xff,
  0x01, 0x00, 0x00, 0x00, 0x07, 0x00, 0x00, 0x00, 0x03, 0x00, 0x00, 0x00,
  0x06, 0x00, 0x00, 0x00, 0x04, 0x00, 0x00, 0x00, 0x02, 0x00, 0x00, 0x00,
  0xe6, 0xe3, 0xff, 0xff, 0x10, 0x00, 0x00, 0x00, 0x08, 0x00, 0x00, 0x00,
  0x14, 0x00, 0x00, 0x00, 0x34, 0x00, 0x00, 0x00, 0x02, 0x00, 0x00, 0x00,
  0x01, 0x00, 0x00, 0x00, 0x02, 0x00, 0x00, 0x00, 0x1c, 0x00, 0x00, 0x00,
  0x73, 0x65, 0x71, 0x75, 0x65, 0x6e, 0x74, 0x69, 0x61, 0x6c, 0x5f, 0x33,
  0x2f, 0x64, 0x65, 0x6e, 0x73, 0x65, 0x5f, 0x37, 0x2f, 0x42, 0x69, 0x61,
  0x73, 0x41, 0x64, 0x64, 0x00, 0x00, 0x00, 0x00, 0x34, 0xe4, 0xff, 0xff,
  0x00, 0x00, 0x0a, 0x00, 0x10, 0x00, 0x04, 0x00, 0x08, 0x00, 0x0c, 0x00,
  0x0a, 0x00, 0x00, 0x00, 0x01, 0x00, 0x00, 0x00, 0x10, 0x00, 0x00, 0x00,
  0x04, 0x00, 0x00, 0x00, 0x01, 0x00, 0x00, 0x00, 0x06, 0x00, 0x00, 0x00,
  0x01, 0x00, 0x00, 0x00, 0x05, 0x00, 0x00, 0x00, 0x6a, 0xff, 0xff, 0xff,
  0x00, 0x00, 0x00, 0x0e, 0x01, 0x00, 0x00, 0x00, 0x66, 0xe4, 0xff, 0xff,
  0x10, 0x00, 0x00, 0x00, 0x07, 0x00, 0x00, 0x00, 0x14, 0x00, 0x00, 0x00,
  0x34, 0x00, 0x00, 0x00, 0x02, 0x00, 0x00, 0x00, 0x01, 0x00, 0x00, 0x00,
  0x21, 0x00, 0x00, 0x00, 0x1c, 0x00, 0x00, 0x00, 0x73, 0x65, 0x71, 0x75,
  0x65, 0x6e, 0x74, 0x69, 0x61, 0x6c, 0x5f, 0x33, 0x2f, 0x64, 0x65, 0x6e,
  0x73, 0x65, 0x5f, 0x36, 0x2f, 0x53, 0x69, 0x67, 0x6d, 0x6f, 0x69, 0x64,
  0x00, 0x00, 0x00, 0x00, 0xb4, 0xe4, 0xff, 0xff, 0x00, 0x00, 0x0e, 0x00,
  0x14, 0x00, 0x00, 0x00, 0x08, 0x00, 0x0c, 0x00, 0x07, 0x00, 0x10, 0x00,
  0x0e, 0x00, 0x00, 0x00, 0x00, 0x00, 0x00, 0x08, 0x18, 0x00, 0x00, 0x00,
  0x0c, 0x00, 0x00, 0x00, 0x04, 0x00, 0x00, 0x00, 0x8c, 0xe4, 0xff, 0xff,
  0x01, 0x00, 0x00, 0x00, 0x05, 0x00, 0x00, 0x00, 0x03, 0x00, 0x00, 0x00,
  0x00, 0x00, 0x00, 0x00, 0x03, 0x00, 0x00, 0x00, 0x01, 0x00, 0x00, 0x00,
  0x00, 0x00, 0x0a, 0x00, 0x0c, 0x00, 0x07, 0x00, 0x00, 0x00, 0x08, 0x00,
  0x0a, 0x00, 0x00, 0x00, 0x00, 0x00, 0x00, 0x09, 0x01, 0x00, 0x00, 0x00,
  0x06, 0xe5, 0xff, 0xff, 0x10, 0x00, 0x00, 0x00, 0x06, 0x00, 0x00, 0x00,
  0x14, 0x00, 0x00, 0x00, 0x34, 0x00, 0x00, 0x00, 0x02, 0x00, 0x00, 0x00,
  0x01, 0x00, 0x00, 0x00, 0x21, 0x00, 0x00, 0x00, 0x1c, 0x00, 0x00, 0x00,
  0x73, 0x65, 0x71, 0x75, 0x65, 0x6e, 0x74, 0x69, 0x61, 0x6c, 0x5f, 0x33,
  0x2f, 0x64, 0x65, 0x6e, 0x73, 0x65, 0x5f, 0x36, 0x2f, 0x42, 0x69, 0x61,
  0x73, 0x41, 0x64, 0x64, 0x00, 0x00, 0x00, 0x00, 0x04, 0xe5, 0xff, 0xff,
  0x3a, 0xe6, 0xff, 0xff, 0x04, 0x00, 0x00, 0x00, 0x08, 0x01, 0x00, 0x00,
  0x3d, 0x02, 0x97, 0xbf, 0x8f, 0x3b, 0xd7, 0x3e, 0xac, 0xc2, 0xa4, 0x3d,
  0x93, 0xee, 0x46, 0x3e, 0x75, 0x33, 0x9c, 0xbe, 0x27, 0xc8, 0x31, 0xbf,
  0x98, 0x57, 0x5a, 0x3c, 0xd2, 0xb8, 0x33, 0xbf, 0x2d, 0x72, 0x83, 0xbf,
  0x01, 0x6d, 0x97, 0xbf, 0xde, 0xbc, 0xf5, 0x3d, 0x29, 0x5f, 0x0c, 0xbe,
  0x29, 0xf6, 0x41, 0x3f, 0xad, 0x6c, 0x9d, 0x3f, 0x0c, 0x28, 0xf1, 0x3d,
  0xb3, 0x1e, 0xe8, 0xbd, 0xe4, 0xcb, 0x8d, 0xbe, 0x5a, 0x80, 0x94, 0xbe,
  0xcf, 0xeb, 0x30, 0x3c, 0x1c, 0x6b, 0xab, 0x3d, 0x6d, 0x16, 0x51, 0x3f,
  0x6e, 0x16, 0xa3, 0xbe, 0xb4, 0xb8, 0x1b, 0x3e, 0x0e, 0xad, 0x30, 0x3e,
  0xfa, 0x45, 0x9a, 0xbf, 0x99, 0xf5, 0xb8, 0x3f, 0xa1, 0x97, 0xc1, 0xbe,
  0x04, 0x3c, 0xbb, 0xbc, 0x31, 0xb3, 0xba, 0x3e, 0x1c, 0xa6, 0x16, 0x3d,
  0xa7, 0x03, 0x2d, 0x3f, 0xf7, 0x0d, 0x32, 0xbd, 0x34, 0x50, 0xfd, 0x3e,
  0x6e, 0xd6, 0xfb, 0x3e, 0xa7, 0x86, 0xc7, 0xbe, 0x1a, 0x74, 0xb1, 0xbe,
  0xad, 0xe2, 0xd5, 0xbd, 0xaf, 0xdf, 0xe6, 0xbd, 0x26, 0x64, 0x89, 0x3f,
  0x0b, 0xe6, 0x20, 0x3e, 0xe0, 0xe3, 0x51, 0x3f, 0x1f, 0x8f, 0xea, 0x3f,
  0x94, 0x80, 0x4d, 0x3f, 0x42, 0x54, 0x99, 0x3e, 0xba, 0xa3, 0xf9, 0x3e,
  0xcd, 0xac, 0x44, 0xbf, 0xca, 0x35, 0x43, 0xbf, 0xa2, 0xb3, 0x61, 0x3c,
  0x05, 0x5e, 0x8b, 0x3d, 0xf3, 0x24, 0x26, 0xbc, 0xfc, 0x03, 0x8c, 0x3e,
  0x59, 0x66, 0x10, 0x3e, 0xfb, 0x28, 0x99, 0x3e, 0x23, 0x43, 0x0d, 0xbf,
  0xe6, 0x2b, 0x45, 0x3e, 0x34, 0x6d, 0x88, 0xbe, 0x47, 0x95, 0xba, 0xbb,
  0xab, 0x4c, 0x6d, 0x3f, 0xb8, 0xe7, 0x9f, 0xbf, 0xd5, 0x37, 0x10, 0x3f,
  0xdc, 0xc0, 0x29, 0xbe, 0xc3, 0x04, 0x1d, 0xbe, 0x4d, 0x30, 0x48, 0xbe,
  0x97, 0xef, 0x56, 0xbf, 0x54, 0x9e, 0x4f, 0xbe, 0x95, 0x40, 0x55, 0xbe,
  0x62, 0xe6, 0xff, 0xff, 0x10, 0x00, 0x00, 0x00, 0x05, 0x00, 0x00, 0x00,
  0x14, 0x00, 0x00, 0x00, 0x30, 0x00, 0x00, 0x00, 0x02, 0x00, 0x00, 0x00,
  0x02, 0x00, 0x00, 0x00, 0x21, 0x00, 0x00, 0x00, 0x1b, 0x00, 0x00, 0x00,
  0x73, 0x65, 0x71, 0x75, 0x65, 0x6e, 0x74, 0x69, 0x61, 0x6c, 0x5f, 0x33,
  0x2f, 0x64, 0x65, 0x6e, 0x73, 0x65, 0x5f, 0x37, 0x2f, 0x4d, 0x61, 0x74,
  0x4d, 0x75, 0x6c, 0x00, 0x5c, 0xe6, 0xff, 0xff, 0x92, 0xe7, 0xff, 0xff,
  0x04, 0x00, 0x00, 0x00, 0xb8, 0x17, 0x00, 0x00, 0x44, 0xe4, 0x93, 0x3d,
  0x01, 0x09, 0xc1, 0x3f, 0x3d, 0x5d, 0x75, 0x3f, 0x6f, 0x65, 0x7d, 0xbe,
  0x85, 0x9a, 0xf9, 0xbe, 0xe9, 0x1c, 0x1c, 0xbf, 0x33, 0xea, 0xa0, 0xbf,
  0xca, 0x0c, 0xa8, 0x3f, 0xf3, 0xde, 0x45, 0xbf, 0xdc, 0xc0, 0xe8, 0xbe,
  0x5f, 0x5a, 0xf7, 0xbe, 0x20, 0x4e, 0xf4, 0x3e, 0x89, 0x74, 0x48, 0x3f,
  0x7b, 0x39, 0xd9, 0x3f, 0xc6, 0x40, 0x11, 0x3f, 0x9a, 0xdf, 0x05, 0xbd,
  0x02, 0x79, 0x10, 0x3e, 0xf3, 0x79, 0x04, 0xbe, 0xb9, 0x76, 0x96, 0xbf,
  0x58, 0x81, 0x47, 0x3f, 0x94, 0x0b, 0xa1, 0xbf, 0x67, 0x97, 0x6a, 0xbd,
  0xdc, 0xa0, 0x22, 0xbe, 0x8c, 0x06, 0x16, 0x3e, 0xfa, 0x96, 0x51, 0x3f,
  0x9b, 0x91, 0x9d, 0xbd, 0x23, 0x00, 0x96, 0x3f, 0x66, 0x6f, 0x73, 0xbb,
  0xe4, 0x71, 0x01, 0xbe, 0x64, 0x2e, 0x65, 0x3e, 0xcf, 0xe1, 0xe5, 0xbe,
  0xac, 0xc3, 0x99, 0xbd, 0x12, 0xac, 0xac, 0x3f, 0xd1, 0x63, 0x6c, 0x3f,
  0xdc, 0xc9, 0xf3, 0x3d, 0x72, 0xab, 0xf3, 0xbe, 0xe9, 0x66, 0x3d, 0x3f,
  0xdd, 0x48, 0x50, 0xbf, 0x5c, 0xee, 0x87, 0x3f, 0x2f, 0xed, 0x9b, 0x3e,
  0x26, 0xf1, 0x38, 0x3f, 0x48, 0xa5, 0x38, 0xbf, 0x8b, 0xa2, 0x82, 0x3f,
  0x14, 0x3b, 0x8a, 0xbb, 0x3d, 0xf3, 0xee, 0x3b, 0xc7, 0xd3, 0x81, 0xbd,
  0x2b, 0x41, 0x42, 0xbe, 0x51, 0x27, 0x4c, 0x3c, 0x51, 0x05, 0xcf, 0xbd,
  0xd4, 0xbf, 0x84, 0xbd, 0x3b, 0x5e, 0x6d, 0xbe, 0xaa, 0xa1, 0x39, 0x3e,
  0x8b, 0x10, 0x9d, 0x3d, 0xb7, 0xc0, 0xfc, 0x3d, 0x36, 0x4f, 0x7d, 0x3e,
  0x4a, 0x52, 0x4f, 0x3d, 0x7a, 0xa3, 0xfa, 0xbd, 0xf6, 0xea, 0x11, 0x3c,
  0x5e, 0x77, 0x35, 0x3c, 0x17, 0x66, 0x61, 0x3e, 0x14, 0x83, 0x88, 0xbb,
  0x85, 0xe6, 0x99, 0x3d, 0xf8, 0x48, 0x75, 0xbe, 0x15, 0xf3, 0x85, 0x3d,
  0x80, 0xd1, 0xba, 0xbd, 0xaf, 0x2a, 0x66, 0xbe, 0x79, 0xc6, 0x3d, 0xbe,
  0x23, 0xa6, 0x94, 0xbe, 0xb0, 0x05, 0x7d, 0xbe, 0x68, 0xd9, 0xd3, 0xbc,
  0x9d, 0xbf, 0x83, 0x3e, 0x0a, 0x69, 0x28, 0xbd, 0x41, 0xff, 0xa5, 0x3d,
  0x9f, 0x6a, 0x16, 0xbc, 0x54, 0xb2, 0x8c, 0x3e, 0xe4, 0xc5, 0x75, 0x3e,
  0xac, 0x20, 0x2a, 0x3d, 0xd1, 0x3f, 0x3c, 0x3e, 0xa6, 0xf1, 0x12, 0x3d,
  0x37, 0xd4, 0x05, 0x3d, 0xbe, 0x39, 0x55, 0xbe, 0xb2, 0xd4, 0xca, 0x3d,
  0xbb, 0x07, 0x4f, 0x3e, 0x11, 0x3d, 0x1d, 0x3e, 0xb7, 0xbb, 0x58, 0x3e,
  0xfc, 0x6c, 0x5a, 0xbe, 0xa8, 0x15, 0x28, 0xbe, 0x6e, 0x88, 0x00, 0x3e,
  0xc6, 0x8a, 0xfc, 0x3d, 0xb1, 0x50, 0x5f, 0x3e, 0xc3, 0x83, 0x8c, 0x3e,
  0x46, 0x22, 0x6d, 0x3e, 0x4e, 0x8f, 0x49, 0x3d, 0xcb, 0xda, 0x37, 0xbe,
  0x5a, 0xac, 0x46, 0xbe, 0x52, 0x87, 0x86, 0x3e, 0x69, 0xd7, 0xab, 0xbd,
  0x74, 0x38, 0x7d, 0xbd, 0x59, 0xdd, 0xcc, 0xbd, 0xb7, 0xc4, 0x5a, 0x3d,
  0x61, 0x1b, 0x5e, 0xbe, 0xa8, 0xa0, 0xcf, 0x3d, 0xe1, 0x50, 0xda, 0xbc,
  0x29, 0xfa, 0xc9, 0x3c, 0x1c, 0xb1, 0x62, 0x3e, 0xab, 0x64, 0x4c, 0x3d,
  0x0a, 0x9c, 0x9b, 0x3d, 0x14, 0x94, 0xc0, 0x3c, 0xb2, 0x11, 0x8b, 0xbe,
  0x86, 0xac, 0x08, 0x3e, 0xc4, 0x3c, 0xf5, 0x3d, 0x71, 0xe2, 0x39, 0xbe,
  0xb4, 0xd4, 0x0f, 0xbe, 0xfe, 0x58, 0x07, 0x3d, 0xb7, 0x97, 0xdf, 0x3d,
  0xca, 0xce, 0x16, 0x3e, 0xd3, 0xbc, 0x31, 0x3e, 0x12, 0xca, 0x6d, 0x3d,
  0xe9, 0x91, 0x61, 0xbe, 0xf4, 0x2f, 0x81, 0xbe, 0xc4, 0x92, 0x42, 0x3d,
  0x7c, 0xa9, 0x5e, 0xbe, 0x63, 0x8c, 0xb7, 0xbb, 0x89, 0x3b, 0x74, 0x3e,
  0x96, 0xe6, 0x43, 0x3e, 0xca, 0xea, 0x60, 0xbe, 0xd8, 0xd0, 0x17, 0x3e,
  0x51, 0x50, 0x83, 0xbd, 0x55, 0x83, 0x45, 0x3d, 0x57, 0x24, 0x60, 0xbe,
  0xa3, 0x06, 0x1d, 0xbe, 0xf3, 0x64, 0x11, 0xbe, 0x3d, 0xa6, 0xea, 0x3d,
  0x2a, 0x8f, 0x88, 0xbe, 0xf9, 0xcc, 0x80, 0x3e, 0x07, 0xa5, 0x3b, 0xbe,
  0xf4, 0x6c, 0x0b, 0x3e, 0xcd, 0x0b, 0x87, 0x3e, 0x68, 0xed, 0x79, 0xbe,
  0xcb, 0xba, 0x02, 0x3d, 0xd5, 0x68, 0x59, 0x3e, 0x97, 0x74, 0x81, 0x3e,
  0x50, 0x3e, 0x6c, 0x3e, 0x4f, 0xd5, 0x99, 0xbd, 0x78, 0xa3, 0x16, 0xbe,
  0x69, 0x39, 0x18, 0xbe, 0x40, 0x22, 0x19, 0x3e, 0x0b, 0x92, 0xa4, 0x3d,
  0xa4, 0xd2, 0x45, 0x3e, 0x41, 0xba, 0x3a, 0xbe, 0x89, 0xff, 0xe0, 0x3b,
  0x6b, 0x20, 0x58, 0x3e, 0xc1, 0x9e, 0x51, 0xbe, 0x5d, 0x68, 0xa7, 0xbd,
  0xff, 0x7a, 0x1e, 0x3e, 0xac, 0xdb, 0x19, 0x3e, 0x7b, 0x15, 0x7e, 0xbe,
  0x64, 0x75, 0xbe, 0x3d, 0x3a, 0xe1, 0x37, 0x3e, 0xc9, 0xbc, 0x42, 0xbe,
  0x17, 0xce, 0xf1, 0xbc, 0x96, 0xc0, 0x8c, 0xbe, 0x9f, 0xe2, 0x6a, 0x3e,
  0x94, 0x2f, 0xfc, 0xbd, 0x8f, 0xf3, 0x48, 0xbd, 0xd3, 0x04, 0x5c, 0x3e,
  0x1c, 0x1f, 0x49, 0xbe, 0xa0, 0x41, 0x85, 0x3e, 0x6e, 0x76, 0x2b, 0xbe,
  0x35, 0x23, 0x2e, 0x3a, 0x4f, 0x28, 0x08, 0x3e, 0xdc, 0x6e, 0x77, 0x3d,
  0x5b, 0xb6, 0x33, 0x3d, 0x5b, 0x54, 0x6b, 0xb9, 0x7e, 0x55, 0x1d, 0x3d,
  0x5e, 0xc3, 0xd6, 0x3d, 0xe4, 0xb9, 0x80, 0xb9, 0xba, 0x29, 0x3a, 0x3e,
  0xf0, 0x9e, 0x49, 0x3e, 0x7b, 0x1f, 0x0e, 0xbe, 0xfc, 0xa8, 0x52, 0x3e,
  0xa0, 0x04, 0xbc, 0x3d, 0x64, 0xbe, 0x6b, 0x3e, 0x38, 0xe3, 0x17, 0x3e,
  0x11, 0x14, 0x4a, 0xbe, 0x7e, 0x5e, 0x09, 0xbe, 0x74, 0xe2, 0x47, 0xbd,
  0x6a, 0x59, 0x37, 0xbe, 0x19, 0x9c, 0xbd, 0xbb, 0x87, 0xa0, 0x79, 0xbe,
  0x5e, 0xe0, 0xdd, 0xbd, 0xe9, 0xc7, 0x7b, 0x3e, 0x02, 0x21, 0x3b, 0xbe,
  0xff, 0x04, 0x69, 0xbe, 0x3d, 0x42, 0x82, 0x3d, 0xae, 0x3b, 0x54, 0xbe,
  0x2a, 0xd5, 0x50, 0xbe, 0xf8, 0xab, 0x46, 0xbe, 0x5a, 0xb1, 0x19, 0x3e,
  0x46, 0xef, 0x8d, 0xbe, 0x8f, 0xad, 0x40, 0xbd, 0xa2, 0x67, 0x99, 0xbd,
  0x8a, 0x4a, 0x14, 0x3e, 0x40, 0x30, 0x2c, 0x3d, 0x05, 0xa9, 0xae, 0x3d,
  0xa5, 0xa8, 0xcb, 0xbd, 0xae, 0xbe, 0x65, 0x3e, 0xb8, 0x31, 0x80, 0x3d,
  0x63, 0xc7, 0x1b, 0xbe, 0xa2, 0xc8, 0x37, 0x3d, 0x56, 0x0a, 0x62, 0x3d,
  0xe0, 0x59, 0x96, 0xbd, 0xce, 0x83, 0x34, 0xbe, 0xe2, 0xfc, 0x34, 0xbe,
  0x03, 0x16, 0x08, 0xbe, 0xbe, 0xc1, 0x14, 0xbe, 0xd9, 0x92, 0x2f, 0xbe,
  0xda, 0x2f, 0x1d, 0x3d, 0xdb, 0x0f, 0x37, 0x3e, 0x52, 0xe8, 0x21, 0xbe,
  0x09, 0x99, 0x81, 0x3e, 0x6b, 0x0e, 0x37, 0xbe, 0x3b, 0xec, 0x80, 0xbd,
  0x8f, 0xab, 0xa7, 0xbc, 0xf3, 0xba, 0x4b, 0xbd, 0x4b, 0x10, 0x9c, 0xbc,
  0x31, 0x72, 0x79, 0xbd, 0xb4, 0xf2, 0x61, 0xbe, 0x47, 0xa9, 0x8b, 0xbe,
  0x4b, 0xbe, 0x49, 0x3d, 0xe4, 0x3f, 0x14, 0xbf, 0x89, 0xe9, 0xb2, 0x3f,
  0xd9, 0x89, 0x6a, 0x3f, 0xa2, 0x69, 0xcc, 0xbe, 0xfe, 0x78, 0x94, 0xbe,
  0x15, 0xc2, 0xcf, 0xbe, 0x82, 0x7b, 0x99, 0x3d, 0x6f, 0x78, 0x84, 0x3f,
  0xe9, 0x8b, 0x95, 0xbf, 0xb5, 0x46, 0x49, 0x3e, 0x3b, 0x0b, 0x93, 0xbe,
  0x18, 0xe0, 0x10, 0xbf, 0x36, 0xe9, 0x40, 0x3f, 0xbe, 0xca, 0xa9, 0x3f,
  0x12, 0x78, 0x24, 0x3f, 0x47, 0x97, 0xd9, 0xbd, 0x33, 0xa2, 0xc6, 0x3a,
  0xbd, 0xf8, 0x29, 0x3d, 0xa7, 0x9f, 0x8b, 0xbf, 0xfc, 0xe3, 0x9f, 0x3d,
  0xe2, 0x92, 0xb4, 0xbf, 0x77, 0x90, 0xc8, 0x3d, 0x37, 0xb9, 0x87, 0x3c,
  0x67, 0xf4, 0x1e, 0xbd, 0xcc, 0x7d, 0x98, 0x3f, 0x6c, 0x6f, 0xb2, 0x3f,
  0x29, 0x46, 0x86, 0x3f, 0xed, 0x50, 0x02, 0x3e, 0xf0, 0x87, 0x80, 0x3c,
  0x19, 0x38, 0x8a, 0xbc, 0x9d, 0x16, 0x9a, 0x3e, 0xb5, 0xde, 0xa6, 0xbe,
  0x0b, 0x6e, 0x9f, 0x3f, 0xab, 0x1c, 0x22, 0x3f, 0xf5, 0xad, 0x89, 0xbe,
  0x4f, 0x0e, 0x6f, 0xbf, 0x85, 0x64, 0x62, 0x3f, 0x06, 0x75, 0x22, 0xbf,
  0x4a, 0x85, 0xc8, 0x3f, 0xed, 0x9d, 0x83, 0x3f, 0x8a, 0x7a, 0x58, 0x3f,
  0xcf, 0x93, 0x73, 0x3f, 0x93, 0x92, 0x54, 0x3f, 0xa3, 0xe9, 0xdc, 0xbc,
  0x23, 0xb0, 0xc7, 0x3b, 0xf9, 0x07, 0x25, 0x3c, 0xd0, 0xcf, 0x8c, 0x3d,
  0xb5, 0xb8, 0x29, 0x3c, 0x6d, 0x67, 0x71, 0x3e, 0x23, 0x05, 0xbc, 0xbe,
  0x28, 0xae, 0x9e, 0xbd, 0x8f, 0x29, 0x83, 0xbd, 0xf8, 0xc9, 0x00, 0xbe,
  0x24, 0xa2, 0x89, 0x3e, 0xfb, 0x72, 0x1c, 0x3e, 0x09, 0x13, 0xc7, 0xbd,
  0xae, 0xad, 0xdf, 0x3d, 0x4b, 0x74, 0x96, 0xbd, 0x26, 0x66, 0xe5, 0x3d,
  0x75, 0x2e, 0x40, 0x3e, 0xb7, 0x35, 0x33, 0xbe, 0xc9, 0x40, 0x1f, 0x3e,
  0xfd, 0x59, 0xa7, 0xbe, 0xdb, 0x7c, 0x67, 0xbe, 0xdf, 0x3a, 0x3c, 0xbd,
  0x6f, 0xe5, 0x97, 0x3e, 0x50, 0x52, 0x55, 0xbd, 0xe9, 0x02, 0x8c, 0x3d,
  0x59, 0x60, 0xc4, 0x3d, 0x02, 0x1a, 0xdd, 0x3d, 0x29, 0x3f, 0x2c, 0x3e,
  0x2c, 0x49, 0x92, 0xbe, 0x22, 0xf8, 0x81, 0xbe, 0xe6, 0xa2, 0x9c, 0xbe,
  0xbb, 0x74, 0x49, 0xbe, 0x3d, 0x56, 0xa3, 0xbe, 0x48, 0x31, 0xd7, 0xba,
  0xa5, 0xdf, 0xfe, 0x3d, 0xc5, 0x08, 0x45, 0x3d, 0xc4, 0xdb, 0x94, 0x3d,
  0x59, 0x3a, 0xda, 0xbd, 0x29, 0x9c, 0xb4, 0x3e, 0x6d, 0xcd, 0x20, 0xbe,
  0x5c, 0xf1, 0x40, 0xbe, 0x4f, 0xbe, 0x5d, 0xbe, 0xc6, 0xb4, 0xa7, 0xbe,
  0x55, 0x66, 0x0d, 0xbc, 0x73, 0xfe, 0xa5, 0xbc, 0x1d, 0x44, 0xa8, 0xbe,
  0x50, 0x00, 0x12, 0x3e, 0x39, 0xb8, 0xd1, 0xbd, 0x71, 0x44, 0xc7, 0xbd,
  0x9c, 0xde, 0x47, 0x3e, 0x90, 0x25, 0xa3, 0x3f, 0x7d, 0x8b, 0x98, 0x3f,
  0xd5, 0xf8, 0x5b, 0xbe, 0xa7, 0x2a, 0x5a, 0xbe, 0x4b, 0x76, 0x17, 0xbf,
  0x8e, 0x22, 0xbf, 0xbe, 0x2e, 0x38, 0xe8, 0x3f, 0xf5, 0x4d, 0xc4, 0xbf,
  0x9e, 0xa4, 0x80, 0xbd, 0xf5, 0x24, 0x59, 0xbd, 0x24, 0x4a, 0xae, 0x3b,
  0x49, 0x7a, 0xac, 0x3f, 0x24, 0xc9, 0xba, 0x3f, 0xe6, 0x8e, 0x22, 0x3f,
  0x4a, 0x27, 0x02, 0xbd, 0x93, 0xe0, 0xf4, 0x3c, 0xb1, 0x0f, 0xd9, 0xbd,
  0xa9, 0x20, 0x04, 0xbf, 0x66, 0xb8, 0x4f, 0x3f, 0x83, 0x8e, 0x6c, 0xbf,
  0xd5, 0xf0, 0x86, 0x3d, 0xff, 0x80, 0xfd, 0xbc, 0xfb, 0xbc, 0xe0, 0x3d,
  0x9d, 0x41, 0x98, 0x3f, 0xe8, 0xf4, 0xa0, 0x3d, 0x90, 0x8d, 0x6a, 0x3f,
  0xe3, 0x77, 0xb9, 0x3d, 0xba, 0xb9, 0x89, 0xbc, 0xd3, 0x1d, 0x3a, 0x3e,
  0x0d, 0x36, 0x3a, 0x3e, 0x84, 0x09, 0x69, 0x3d, 0x13, 0x48, 0x99, 0x3f,
  0x37, 0xb8, 0x95, 0x3f, 0x54, 0xe0, 0xea, 0xbd, 0xe9, 0xc1, 0x22, 0xbf,
  0x5b, 0xb5, 0x33, 0x3e, 0x03, 0x19, 0xa1, 0xbf, 0xea, 0x67, 0x9e, 0x3f,
  0x6b, 0x3f, 0x14, 0x3e, 0x52, 0x6b, 0x80, 0x3f, 0xdb, 0x87, 0xd3, 0xbe,
  0x93, 0x0b, 0x71, 0x3f, 0xb1, 0xd0, 0xe2, 0xbc, 0x90, 0x01, 0x3d, 0xbd,
  0x93, 0xbb, 0x90, 0xbc, 0xba, 0x12, 0x9e, 0xbe, 0x89, 0xf1, 0x82, 0x3f,
  0xff, 0x82, 0xa7, 0x3e, 0x69, 0x10, 0x34, 0xbf, 0xeb, 0xab, 0xb3, 0xbe,
  0x73, 0x91, 0xbe, 0xbe, 0xd7, 0xff, 0x52, 0x3f, 0x9f, 0x1a, 0xd9, 0x3f,
  0x62, 0xfe, 0x9b, 0xbf, 0xce, 0x05, 0xe3, 0xbe, 0xd6, 0x4e, 0x91, 0xbe,
  0x13, 0x5e, 0x20, 0xbf, 0xd9, 0x93, 0x91, 0x3f, 0xf3, 0xd9, 0xe4, 0x3f,
  0x06, 0x4c, 0xb6, 0x3e, 0x4c, 0xcd, 0x0a, 0xbe, 0x00, 0x32, 0xb8, 0x3d,
  0x74, 0x21, 0xbb, 0xbd, 0x67, 0x39, 0x1d, 0xbf, 0xb3, 0x2f, 0xb9, 0x3f,
  0xac, 0x1c, 0xc3, 0xbf, 0xfb, 0x7e, 0x40, 0xbe, 0x70, 0x77, 0x8c, 0x3b,
  0x05, 0xe3, 0x8c, 0xbe, 0xc3, 0x35, 0x78, 0x3f, 0x6a, 0x02, 0x01, 0xbd,
  0x9d, 0x81, 0x6d, 0x3f, 0x19, 0x19, 0x3c, 0xbc, 0x2c, 0x37, 0x92, 0xbd,
  0x7e, 0xad, 0x6f, 0xbd, 0x80, 0x68, 0x05, 0x3e, 0x72, 0x54, 0x16, 0x3f,
  0x3d, 0x58, 0xc9, 0x3f, 0x40, 0xc8, 0xaa, 0x3f, 0xd8, 0xf8, 0x8b, 0xbe,
  0x2a, 0x60, 0x1b, 0xbf, 0xb4, 0xbc, 0x56, 0x3e, 0x4e, 0xd2, 0x97, 0xbf,
  0x3f, 0x29, 0xa4, 0x3f, 0x6d, 0x0b, 0xef, 0x3c, 0x94, 0xb3, 0xa4, 0x3f,
  0xf7, 0x41, 0xd8, 0xbe, 0xd2, 0x67, 0x82, 0x3f, 0x6d, 0x05, 0x47, 0x3d,
  0xf2, 0x87, 0xc8, 0x3c, 0x1b, 0xb1, 0x19, 0x3d, 0xeb, 0xf0, 0xf6, 0x3e,
  0x36, 0x72, 0xd0, 0x3f, 0xe1, 0xd0, 0xda, 0x3f, 0x5b, 0x5f, 0xfd, 0xbd,
  0x0d, 0xc4, 0xaf, 0xbe, 0xa5, 0x09, 0x16, 0xbf, 0x4a, 0xaf, 0x86, 0x3f,
  0x48, 0x41, 0x06, 0x40, 0x68, 0x73, 0x33, 0xbf, 0xf3, 0x37, 0x26, 0x3f,
  0xfa, 0xd3, 0xad, 0x3e, 0xa5, 0x4b, 0x8f, 0xbe, 0x92, 0xea, 0x9e, 0x3f,
  0x51, 0x2a, 0x14, 0x40, 0x50, 0x3b, 0x24, 0x3f, 0xc7, 0xdf, 0x5a, 0x3c,
  0x43, 0x66, 0x0c, 0x3e, 0xbd, 0x76, 0x36, 0xbc, 0xea, 0x02, 0x2b, 0xbf,
  0xc8, 0xbc, 0x99, 0x3f, 0x4e, 0x35, 0xbb, 0xbe, 0xa3, 0x85, 0x47, 0x3d,
  0x09, 0xe7, 0xa9, 0x3c, 0xe4, 0xa6, 0x11, 0xbe, 0x37, 0xb8, 0xc2, 0x3f,
  0x0c, 0x05, 0x1f, 0x3f, 0xaa, 0x8e, 0x93, 0x3f, 0xed, 0xce, 0x21, 0x3d,
  0xc2, 0xfb, 0xa5, 0xbd, 0xc8, 0xb8, 0x78, 0xbc, 0xea, 0x2e, 0xa0, 0x3f,
  0x07, 0x54, 0x4e, 0xbe, 0x5e, 0x2e, 0x02, 0x40, 0x31, 0x4d, 0xae, 0x3f,
  0xd1, 0x79, 0xd6, 0x3e, 0x13, 0x05, 0x1a, 0xbe, 0x07, 0x5a, 0xd2, 0x3e,
  0xb5, 0x78, 0x89, 0xbf, 0xfe, 0xb9, 0x8c, 0x3f, 0xbe, 0x5c, 0x32, 0x3f,
  0x6d, 0x15, 0xa7, 0x3f, 0xe0, 0xeb, 0x95, 0xbe, 0xeb, 0xbc, 0x87, 0x3f,
  0x8c, 0xea, 0x33, 0xbd, 0x23, 0x85, 0x13, 0x3d, 0x17, 0xe4, 0x60, 0xbd,
  0x6b, 0xa8, 0x30, 0x3e, 0xe5, 0x25, 0x14, 0x3e, 0x19, 0x75, 0x0e, 0x3e,
  0xf0, 0xfd, 0x48, 0xbd, 0x24, 0xb3, 0xf0, 0xb9, 0xec, 0xa7, 0x0e, 0xbd,
  0x72, 0xdb, 0x26, 0xbc, 0x5b, 0x52, 0x47, 0xbe, 0xc4, 0xa3, 0x47, 0xbe,
  0x9c, 0x24, 0x03, 0x3e, 0x19, 0x57, 0x50, 0x3c, 0x87, 0xf9, 0x1c, 0xbe,
  0xa1, 0xef, 0x53, 0xbd, 0x7b, 0x23, 0xd5, 0xbc, 0xf3, 0x90, 0x3d, 0xbe,
  0xe3, 0x11, 0xa6, 0xbe, 0xb1, 0xc7, 0x40, 0x3d, 0xb5, 0x06, 0x41, 0xbe,
  0x0c, 0xef, 0x6d, 0x3d, 0x22, 0x8a, 0xab, 0x3d, 0xf5, 0x8b, 0x36, 0x3e,
  0x7e, 0x80, 0x78, 0x3e, 0xea, 0x5a, 0x28, 0x3e, 0xe8, 0x18, 0x54, 0x3e,
  0x89, 0x39, 0xa5, 0x3d, 0xff, 0xfa, 0xd9, 0xbd, 0x42, 0x7a, 0xc3, 0x3d,
  0x06, 0x64, 0x25, 0x3a, 0x75, 0xc0, 0x79, 0xbe, 0x0e, 0xfd, 0x09, 0x3e,
  0xa5, 0x62, 0x1f, 0x3e, 0x8d, 0xd6, 0x36, 0xbd, 0xa9, 0xcf, 0x98, 0xbd,
  0x44, 0xce, 0x1b, 0xbb, 0x79, 0x3f, 0x1a, 0xbe, 0xe7, 0x34, 0x1c, 0x3e,
  0xb0, 0x2f, 0x89, 0xbc, 0xc9, 0x1d, 0x42, 0xbe, 0x9f, 0xea, 0xfb, 0xbd,
  0x2d, 0xc8, 0xf0, 0x3d, 0x35, 0x5e, 0x5f, 0xbe, 0x8b, 0xfb, 0x88, 0x3c,
  0xe6, 0xf8, 0xa2, 0x3d, 0x90, 0x6b, 0x66, 0xbd, 0x06, 0xff, 0x8d, 0x3b,
  0x96, 0x1b, 0xda, 0xbc, 0x65, 0xfe, 0xa6, 0x3e, 0xd4, 0x6b, 0x1a, 0x3f,
  0xb4, 0x52, 0x89, 0x3f, 0xb1, 0x13, 0xc8, 0xbe, 0x94, 0x28, 0xba, 0xbd,
  0x4a, 0xb8, 0x92, 0x3e, 0xf3, 0x40, 0x80, 0xbe, 0xfd, 0x50, 0x42, 0x3f,
  0x02, 0x9b, 0xf4, 0x3e, 0xcf, 0x9a, 0x9b, 0x3e, 0x75, 0xdf, 0xec, 0xbe,
  0xec, 0x2f, 0x94, 0x3d, 0x44, 0x8d, 0x45, 0x3e, 0x64, 0xe7, 0x1d, 0x3f,
  0x38, 0x42, 0x8e, 0x3f, 0x38, 0x22, 0x83, 0x3d, 0x84, 0xbd, 0x90, 0x3e,
  0x09, 0x86, 0x0e, 0xbe, 0x1e, 0x1f, 0xdc, 0xbe, 0x4b, 0xc6, 0x52, 0x3f,
  0xd4, 0xb3, 0x0c, 0xbf, 0xed, 0xe4, 0x98, 0x3e, 0x43, 0xad, 0xf8, 0xb9,
  0x2f, 0x71, 0x37, 0x3d, 0x8c, 0xb9, 0x69, 0x3e, 0x4a, 0x69, 0x2a, 0xbe,
  0x19, 0x8b, 0x6f, 0x3f, 0xc7, 0x98, 0x61, 0x3d, 0x14, 0x3f, 0x86, 0x3e,
  0xf0, 0x99, 0x1b, 0x3e, 0x69, 0xf5, 0x9d, 0xbe, 0x33, 0xed, 0xc1, 0xbe,
  0x00, 0x61, 0x11, 0x3f, 0xa3, 0x7f, 0x53, 0x3f, 0x50, 0x86, 0x94, 0x3f,
  0xd2, 0x4e, 0x48, 0xbe, 0x1d, 0x26, 0x6a, 0xbe, 0x41, 0xfa, 0xc8, 0xbe,
  0x4f, 0x88, 0xed, 0x3e, 0x5e, 0x2d, 0x35, 0x3e, 0x8b, 0xf9, 0xc6, 0xbc,
  0xe2, 0xa1, 0x91, 0xbe, 0xe8, 0xdf, 0x67, 0x3f, 0x0e, 0x53, 0x4a, 0xbe,
  0xc4, 0xab, 0x61, 0x3e, 0xbe, 0x03, 0xbb, 0xbc, 0x34, 0xf7, 0x94, 0x3a,
  0x05, 0xcc, 0x95, 0x3d, 0x25, 0xb3, 0x03, 0xbf, 0x91, 0x33, 0x6b, 0x3e,
  0x60, 0x3a, 0x03, 0x3f, 0x1a, 0xe7, 0x1d, 0x3f, 0x20, 0x90, 0x6b, 0x3f,
  0x6b, 0x5c, 0x46, 0xbf, 0x74, 0x06, 0x32, 0x3e, 0xce, 0xe5, 0x31, 0x3f,
  0xe9, 0xef, 0x09, 0x3f, 0x4f, 0xa9, 0x03, 0xbf, 0xc9, 0x77, 0x94, 0x3e,
  0xba, 0x0f, 0x4f, 0xbf, 0x72, 0x7e, 0xd3, 0xbe, 0xab, 0x0f, 0x3c, 0x3e,
  0xee, 0x7b, 0xa6, 0x3d, 0x89, 0x77, 0x58, 0xbe, 0x97, 0x01, 0x8b, 0x3f,
  0x5b, 0x25, 0x0e, 0xbf, 0x89, 0x23, 0x97, 0x3e, 0x34, 0xbc, 0x46, 0x3e,
  0xb8, 0x38, 0x80, 0x3e, 0x51, 0x8c, 0x5c, 0xbe, 0xe7, 0x2e, 0x48, 0xbf,
  0xef, 0x6f, 0x27, 0x3d, 0x0a, 0x4f, 0x1f, 0xbf, 0xf2, 0xf9, 0x78, 0x3d,
  0x6d, 0x44, 0x07, 0x3e, 0x00, 0xef, 0x51, 0xbd, 0x3a, 0x53, 0x04, 0x3f,
  0x4c, 0x71, 0x42, 0x3f, 0x24, 0x90, 0x30, 0xbf, 0xd2, 0xb5, 0x26, 0xbf,
  0x56, 0x06, 0xfe, 0xbe, 0x46, 0x2e, 0x6b, 0x3e, 0xbe, 0x33, 0x15, 0xbe,
  0x2c, 0x8b, 0x00, 0x3f, 0x60, 0xa0, 0x35, 0xbf, 0xd4, 0xe1, 0x4f, 0x3b,
  0x6e, 0x82, 0x39, 0xbf, 0x10, 0x43, 0xa6, 0x3e, 0xd2, 0xcd, 0x16, 0xbf,
  0xfb, 0x08, 0xc7, 0xbc, 0x37, 0x0a, 0x04, 0xbe, 0xc9, 0xc2, 0xbc, 0xbd,
  0xd2, 0x27, 0x41, 0x3e, 0x69, 0xa5, 0xc2, 0xbf, 0x79, 0xbd, 0xa7, 0xbf,
  0xb3, 0xf1, 0x17, 0x3e, 0x98, 0x9b, 0x20, 0x3f, 0xfe, 0x50, 0xc5, 0x3e,
  0xbe, 0x45, 0x9e, 0x3f, 0xc2, 0xd4, 0xe1, 0xbf, 0xee, 0xb9, 0x71, 0x3f,
  0x88, 0x95, 0xe1, 0xbd, 0x2d, 0x03, 0x27, 0x3f, 0xfe, 0x4f, 0xa7, 0xbf,
  0xfa, 0x38, 0x25, 0xbf, 0x5a, 0x52, 0xb7, 0xbf, 0x22, 0xd8, 0x94, 0xbf,
  0xb1, 0x32, 0x2d, 0xbe, 0x39, 0x86, 0x24, 0xbd, 0x75, 0x75, 0x2f, 0x3e,
  0x8e, 0xe5, 0x92, 0x3f, 0x61, 0x98, 0x6e, 0xbf, 0x00, 0xea, 0x87, 0x3f,
  0x8c, 0x35, 0x2d, 0x3e, 0x11, 0x10, 0x90, 0x3d, 0x47, 0x3e, 0x76, 0xbe,
  0xfd, 0xdc, 0x8a, 0xbf, 0x6b, 0xc9, 0x2a, 0xbf, 0xc5, 0x21, 0x80, 0xbf,
  0xff, 0x67, 0x1a, 0x3e, 0x8a, 0x5f, 0xc7, 0x3c, 0xf9, 0x7a, 0x6d, 0xbe,
  0xf0, 0x59, 0xc3, 0x3e, 0x59, 0xb6, 0xa3, 0x3e, 0xad, 0xfa, 0x9f, 0xbf,
  0xce, 0x50, 0xa3, 0xbf, 0x55, 0x2d, 0x00, 0xbf, 0x1a, 0xbc, 0xcd, 0x3e,
  0x02, 0xdf, 0x22, 0xbf, 0x24, 0xea, 0x2f, 0x3f, 0xe6, 0xb3, 0x9b, 0xbf,
  0x04, 0xe8, 0x60, 0xbe, 0x0f, 0x74, 0x29, 0xbf, 0x04, 0x4c, 0xa6, 0x3e,
  0x42, 0xb3, 0x75, 0xbf, 0xff, 0xc1, 0xa8, 0x3c, 0xca, 0x90, 0xc6, 0xbc,
  0xaa, 0xc2, 0xec, 0x3c, 0x91, 0xa4, 0x6f, 0xbd, 0xe0, 0x2c, 0xad, 0x3b,
  0x1a, 0x5e, 0x5c, 0xbd, 0xf5, 0x93, 0xde, 0x3d, 0x97, 0xa5, 0xfa, 0x3d,
  0xf6, 0x27, 0x8d, 0xbe, 0x4e, 0x64, 0xc0, 0x3d, 0xd1, 0xa9, 0x65, 0xbd,
  0x5e, 0xb1, 0x7d, 0xbe, 0xeb, 0x96, 0x40, 0xbe, 0x9a, 0x29, 0x85, 0xbe,
  0x83, 0x8a, 0x2f, 0x3e, 0x8e, 0xff, 0x45, 0xbd, 0x52, 0xac, 0x3e, 0x3e,
  0x28, 0xc8, 0x37, 0xbd, 0x1d, 0xb2, 0x29, 0xbe, 0xfb, 0x10, 0x17, 0x3e,
  0x2f, 0x71, 0x6a, 0xbe, 0x9b, 0xf2, 0xcb, 0xbd, 0x29, 0xf2, 0x89, 0x3e,
  0x6f, 0x1c, 0x0a, 0x3e, 0x34, 0x45, 0x80, 0x3e, 0x95, 0x66, 0x89, 0x3e,
  0x8a, 0x15, 0x55, 0x3e, 0xde, 0xe7, 0xb9, 0xbc, 0x46, 0x4a, 0x96, 0xbe,
  0x71, 0x95, 0x7f, 0x3d, 0x9f, 0x3a, 0x90, 0xbe, 0x25, 0x32, 0x91, 0x3d,
  0xaf, 0xed, 0x0f, 0x3e, 0x4f, 0x40, 0x35, 0xbd, 0x03, 0x68, 0x35, 0xbd,
  0x21, 0x6a, 0x50, 0x3e, 0xf6, 0x7a, 0x5a, 0xbd, 0x30, 0xbb, 0x5c, 0xbe,
  0xe0, 0x32, 0xc1, 0x3c, 0x6c, 0x22, 0x93, 0xbe, 0x67, 0x35, 0x2e, 0x3e,
  0x25, 0x06, 0x15, 0xbe, 0x70, 0x3a, 0xa5, 0xbe, 0xb4, 0xe7, 0x34, 0xbd,
  0xb3, 0x80, 0x47, 0x3e, 0x89, 0x99, 0x0a, 0xbe, 0xb8, 0x4a, 0x8c, 0xbe,
  0xac, 0xe4, 0x0c, 0x3c, 0x11, 0x20, 0xd9, 0xbd, 0x65, 0x1b, 0x87, 0xbe,
  0x8b, 0xe2, 0xde, 0xbd, 0x40, 0x32, 0xb1, 0x3d, 0xb7, 0x3d, 0x71, 0xbe,
  0xd1, 0xc3, 0xad, 0xbd, 0xae, 0x79, 0x0d, 0x3e, 0xfb, 0xf8, 0x0b, 0xbe,
  0xb0, 0xd9, 0x8f, 0x3b, 0x5b, 0x52, 0x15, 0xbd, 0x73, 0xf8, 0x8a, 0x3e,
  0x7b, 0xe0, 0x58, 0xbe, 0xc8, 0xff, 0x51, 0x3d, 0x43, 0xb7, 0x50, 0xbe,
  0x15, 0xba, 0x2a, 0x3e, 0x8e, 0x8a, 0xe0, 0x3c, 0x11, 0x9a, 0x2a, 0xbe,
  0xc0, 0x52, 0x35, 0xbe, 0x5a, 0xf2, 0xc4, 0xbd, 0x7e, 0xa7, 0xa5, 0x3e,
  0x3b, 0x93, 0x76, 0x3e, 0x23, 0xcb, 0x81, 0x3e, 0x87, 0x75, 0x41, 0x3d,
  0xfc, 0x8e, 0x60, 0x3e, 0x51, 0xa3, 0x82, 0x3e, 0xb2, 0x53, 0x79, 0xbe,
  0x9e, 0x63, 0x95, 0xbc, 0xca, 0xdb, 0xb9, 0xbd, 0x95, 0x38, 0x99, 0xbe,
  0x6c, 0x4b, 0x1d, 0x3e, 0x7e, 0x41, 0xb4, 0x3d, 0x1b, 0x20, 0x09, 0x3b,
  0xb5, 0x01, 0x0b, 0xbd, 0xc5, 0xe5, 0x98, 0x3e, 0x47, 0xd7, 0x17, 0x3e,
  0x33, 0x20, 0x57, 0xbe, 0xce, 0x61, 0x56, 0x3e, 0xbb, 0xfa, 0x52, 0xbd,
  0x93, 0xcb, 0xd1, 0xbc, 0xe6, 0xdd, 0xeb, 0xbd, 0x04, 0x51, 0x93, 0xbe,
  0x68, 0x93, 0x72, 0x3c, 0xef, 0x62, 0x7b, 0xbe, 0x74, 0x35, 0xb9, 0xbd,
  0xf2, 0x52, 0x52, 0x3e, 0x72, 0xd9, 0x3a, 0xbe, 0xcf, 0x46, 0x42, 0xbe,
  0x37, 0xef, 0x61, 0xbe, 0x8e, 0xcb, 0x27, 0xbe, 0xd1, 0xb6, 0x9b, 0xbd,
  0x06, 0xde, 0x87, 0xbd, 0x4c, 0x61, 0xa5, 0x3d, 0x2c, 0xec, 0x7e, 0xbd,
  0xba, 0x97, 0xb9, 0x3d, 0x88, 0x4a, 0x16, 0xbe, 0xb5, 0xf8, 0x7f, 0x3e,
  0xf4, 0x2a, 0x3e, 0x3e, 0xb7, 0xcf, 0x10, 0x3e, 0x70, 0x85, 0x53, 0x3e,
  0x74, 0x36, 0xff, 0x3d, 0x42, 0x18, 0x42, 0xbe, 0x0c, 0x00, 0x2f, 0x3e,
  0x05, 0xa4, 0x09, 0xbc, 0x62, 0xbf, 0x18, 0xbe, 0x4b, 0x24, 0x16, 0xbe,
  0x41, 0x41, 0xdc, 0xbd, 0x59, 0x62, 0x4a, 0x3c, 0x07, 0xcf, 0x84, 0x3e,
  0x57, 0x35, 0x8b, 0xbd, 0x3f, 0xb7, 0x9e, 0x3e, 0xd7, 0x9b, 0x87, 0x3e,
  0x3a, 0x48, 0x57, 0xbe, 0x46, 0xe6, 0xee, 0x3d, 0xe4, 0xc3, 0x26, 0x3e,
  0x32, 0x0e, 0xbe, 0xbd, 0xb4, 0x83, 0x8c, 0xbe, 0xcc, 0xd8, 0xf4, 0xbd,
  0x62, 0x69, 0x96, 0xbd, 0x1f, 0xcf, 0x30, 0xbe, 0x56, 0x70, 0x42, 0xbd,
  0x4b, 0x3a, 0xa0, 0x3e, 0xa7, 0x75, 0x8f, 0x3e, 0x21, 0xa1, 0x9f, 0x3d,
  0x79, 0xa2, 0xbe, 0x3d, 0x8d, 0x25, 0x91, 0xbe, 0x65, 0x11, 0x80, 0xbe,
  0x90, 0xc5, 0x4b, 0x3d, 0x2b, 0xd9, 0xf8, 0xbc, 0xee, 0x01, 0x81, 0xbe,
  0x90, 0xac, 0x87, 0xbe, 0xdc, 0x35, 0x50, 0xbe, 0x32, 0xb7, 0x3b, 0x3e,
  0x4c, 0x4f, 0x7c, 0xbe, 0x19, 0xc8, 0xc8, 0xbd, 0x3f, 0xf2, 0x64, 0x3d,
  0x49, 0xb7, 0xf9, 0x3d, 0x14, 0xcc, 0xba, 0xbd, 0x26, 0xde, 0x90, 0x3e,
  0x76, 0x36, 0x97, 0x3e, 0x6c, 0x62, 0x82, 0x3e, 0xed, 0x8a, 0x5f, 0xbd,
  0x82, 0xba, 0xa4, 0x3e, 0x42, 0x19, 0x30, 0xbe, 0x87, 0x67, 0x05, 0x3e,
  0x8a, 0xfb, 0x76, 0xbe, 0xde, 0x00, 0x02, 0xbe, 0x2f, 0x48, 0x97, 0x3d,
  0x9c, 0x66, 0x2a, 0xbd, 0x42, 0xf2, 0x06, 0xbe, 0x72, 0x13, 0xa1, 0xbd,
  0x89, 0x81, 0x20, 0x3e, 0xfc, 0x81, 0x11, 0x3d, 0xc7, 0x1f, 0x3c, 0xbd,
  0x9b, 0x22, 0xef, 0x3d, 0xb8, 0x58, 0x9b, 0xbb, 0xca, 0xc0, 0xab, 0x3c,
  0x42, 0x36, 0x74, 0xbd, 0xaa, 0xab, 0x94, 0x3c, 0xf9, 0x01, 0xe8, 0xbd,
  0x73, 0xd3, 0x07, 0xbd, 0xf5, 0x98, 0x88, 0x3e, 0x53, 0x50, 0x69, 0x3e,
  0x1e, 0x13, 0x8e, 0x3e, 0xd6, 0x05, 0xba, 0x3d, 0x81, 0xa2, 0xa0, 0xbe,
  0xa7, 0x62, 0x3a, 0xbe, 0x76, 0x24, 0x97, 0xbd, 0xbc, 0xea, 0xa3, 0x3d,
  0xcd, 0xc8, 0x84, 0x3a, 0x2a, 0x27, 0xca, 0xbd, 0xe7, 0x34, 0xa8, 0xbd,
  0xc2, 0x57, 0x0a, 0xbd, 0xed, 0x87, 0xb0, 0xbd, 0x8a, 0x6c, 0x74, 0x3e,
  0x70, 0xd0, 0x7a, 0x3e, 0xe3, 0xb0, 0xa3, 0x3e, 0x96, 0x71, 0x49, 0x3d,
  0xfa, 0x3d, 0xf1, 0xbd, 0x40, 0xee, 0x09, 0x3e, 0x8c, 0x85, 0xf5, 0xbd,
  0x30, 0x37, 0x08, 0xbd, 0xa8, 0x91, 0x1b, 0x3d, 0x20, 0x6f, 0x48, 0xbc,
  0x8a, 0x82, 0x79, 0x3e, 0xcc, 0xb7, 0xe8, 0x3d, 0x60, 0x64, 0xc1, 0x3c,
  0x94, 0xc0, 0xed, 0x3d, 0x42, 0xf3, 0x0e, 0xbe, 0x00, 0x99, 0xc9, 0x3d,
  0x7e, 0xb3, 0xb7, 0xbd, 0x48, 0x2b, 0x8d, 0xbd, 0xdd, 0xdf, 0x85, 0x3e,
  0x3f, 0x6a, 0x8a, 0x3e, 0x8e, 0xeb, 0x0a, 0x3e, 0xba, 0xb8, 0x77, 0x3e,
  0x40, 0x69, 0x13, 0x3c, 0x66, 0x9f, 0x0f, 0x3e, 0xd0, 0xdb, 0x3b, 0x3d,
  0xc0, 0x93, 0xf8, 0xbb, 0xce, 0xb9, 0x6e, 0xbe, 0x26, 0x4f, 0x85, 0xbe,
  0x74, 0xa1, 0x47, 0xbd, 0x52, 0x4a, 0x48, 0x3e, 0x5a, 0x00, 0x6f, 0x3e,
  0x34, 0x84, 0x97, 0x3d, 0x44, 0xba, 0x88, 0xbd, 0xfa, 0xdd, 0x5a, 0x3e,
  0x73, 0x55, 0x8a, 0x3e, 0xf8, 0xf6, 0x25, 0x3d, 0x2a, 0xf2, 0x02, 0xbe,
  0xb1, 0xed, 0x07, 0xbe, 0xbf, 0xe7, 0x80, 0x3e, 0xd6, 0xdf, 0xd6, 0xbd,
  0x92, 0x27, 0x68, 0x3e, 0x5e, 0x4f, 0x8e, 0xbd, 0xf6, 0xfc, 0xc6, 0xbd,
  0x04, 0x5f, 0xfc, 0x3d, 0x38, 0x55, 0x71, 0x3d, 0xf4, 0xd1, 0x64, 0x3e,
  0xd0, 0xc8, 0xa9, 0x3c, 0x18, 0x8f, 0x0a, 0xbe, 0xf6, 0xc3, 0x37, 0xbe,
  0xca, 0xb3, 0xa7, 0xbd, 0x70, 0x07, 0xae, 0x3c, 0xf2, 0xfb, 0x3e, 0x3e,
  0x87, 0xda, 0x1d, 0xbe, 0x5f, 0x03, 0x0c, 0x3e, 0x42, 0x23, 0xfb, 0xbd,
  0x99, 0xb6, 0x3f, 0xbc, 0xc3, 0xd1, 0x96, 0xbd, 0x26, 0x2f, 0x7b, 0x3b,
  0xad, 0x78, 0x57, 0xbe, 0x4c, 0xe8, 0x7e, 0xbd, 0x60, 0xde, 0x82, 0xbe,
  0x6a, 0xa1, 0x7c, 0x3e, 0x5c, 0xd9, 0x4a, 0xbe, 0xe9, 0xc0, 0xc3, 0xbd,
  0x8f, 0xb8, 0x23, 0xbe, 0x18, 0x08, 0xf0, 0x3d, 0x72, 0xec, 0x5b, 0xbe,
  0x52, 0xec, 0x6c, 0x3e, 0xe8, 0x22, 0x66, 0x3e, 0x3c, 0x56, 0xd8, 0xbd,
  0xb3, 0xa0, 0xdf, 0xbc, 0x29, 0x2a, 0xc6, 0x3d, 0x49, 0x1a, 0x87, 0xbe,
  0xee, 0x9d, 0xf9, 0xbc, 0x85, 0x79, 0xde, 0xbd, 0x98, 0xa2, 0xed, 0xbd,
  0xe8, 0xf8, 0x36, 0x3e, 0xf2, 0x8b, 0x61, 0x3e, 0xde, 0x54, 0x52, 0x3e,
  0x5f, 0xa7, 0xa6, 0x3e, 0xbb, 0x8b, 0x2e, 0x3d, 0xd4, 0x0c, 0xa8, 0x3d,
  0xed, 0x09, 0x75, 0x3e, 0xa9, 0xde, 0x8c, 0xbe, 0xc2, 0xe3, 0x17, 0xbe,
  0x59, 0xe0, 0x53, 0xbb, 0x75, 0x0c, 0x72, 0x3e, 0xd8, 0x4c, 0x8e, 0x3c,
  0x6d, 0x8b, 0x88, 0x3e, 0x87, 0x6b, 0x1f, 0xbe, 0xb4, 0x0a, 0x28, 0xbe,
  0x03, 0x3c, 0x65, 0xbe, 0x36, 0xe7, 0xf1, 0x3c, 0x18, 0xac, 0x26, 0xbe,
  0xfb, 0xdc, 0x46, 0xbe, 0x2b, 0x24, 0x24, 0x3d, 0x56, 0x7b, 0x42, 0x3d,
  0x19, 0xa1, 0x81, 0x3e, 0xf5, 0x64, 0x1b, 0x3f, 0x90, 0x42, 0x91, 0xbf,
  0xa5, 0x1a, 0x8f, 0xbf, 0x0e, 0x37, 0x30, 0x3e, 0x84, 0xed, 0x85, 0x3e,
  0x6f, 0x86, 0x45, 0x3f, 0x75, 0x37, 0xa3, 0x3d, 0x90, 0x2d, 0xab, 0xbf,
  0xef, 0x36, 0x11, 0x3e, 0x86, 0x42, 0x33, 0xbe, 0xa7, 0x9b, 0x4b, 0xbe,
  0xe3, 0x32, 0x69, 0xbf, 0xd9, 0x85, 0x92, 0xbf, 0x19, 0x95, 0x6e, 0xbf,
  0xc7, 0x92, 0x6f, 0xbf, 0x1d, 0xb2, 0x11, 0x3d, 0xeb, 0xe7, 0x6d, 0xbe,
  0xe0, 0x65, 0xb2, 0x3d, 0xed, 0x63, 0x35, 0x3f, 0xd1, 0x4e, 0x52, 0xbf,
  0x4d, 0x73, 0x3c, 0x3f, 0x10, 0x4c, 0x13, 0xbe, 0x2d, 0xa1, 0x21, 0x3e,
  0xd6, 0xaa, 0x57, 0xbe, 0xc9, 0xa0, 0xb4, 0xbf, 0x5a, 0x88, 0x20, 0xbe,
  0xba, 0xe8, 0x82, 0xbf, 0xb4, 0x78, 0xf8, 0xbd, 0xd4, 0x88, 0x4c, 0x3e,
  0xc7, 0x46, 0x5e, 0xbe, 0x88, 0x3a, 0x87, 0xbe, 0xc8, 0x68, 0xc7, 0x3e,
  0xc6, 0x40, 0x4e, 0xbf, 0x96, 0x5e, 0x83, 0xbf, 0xa5, 0xf8, 0x2c, 0xbf,
  0xc1, 0x46, 0xe9, 0x3d, 0xc5, 0x4f, 0xa6, 0xbe, 0x38, 0x75, 0x19, 0x3f,
  0x42, 0x9f, 0x8f, 0xbf, 0x5f, 0xaa, 0x02, 0xbe, 0x6a, 0xc9, 0x97, 0xbf,
  0x1f, 0xdd, 0xbb, 0x3e, 0x32, 0x86, 0x13, 0xbf, 0xd3, 0x71, 0x88, 0x3d,
  0x4f, 0x96, 0xba, 0x3b, 0x9d, 0x5f, 0x87, 0xbc, 0x6a, 0xd8, 0x3c, 0xbf,
  0x5c, 0xab, 0x04, 0x3f, 0x82, 0x06, 0x32, 0xbf, 0x52, 0x4f, 0xd5, 0xbe,
  0x2b, 0x6a, 0x94, 0xbe, 0x50, 0xbd, 0x2d, 0xbf, 0x91, 0x1b, 0x14, 0x3f,
  0xfe, 0x60, 0x8e, 0x3f, 0x73, 0x6b, 0x0d, 0xc0, 0xf9, 0x79, 0x15, 0x3e,
  0xd4, 0x92, 0xfd, 0xbe, 0x7d, 0xb5, 0x88, 0xbf, 0x4d, 0x32, 0x89, 0x3f,
  0xed, 0xd8, 0xb8, 0x3f, 0x82, 0xf6, 0x4e, 0xbf, 0xc6, 0x53, 0xa8, 0x3d,
  0x8c, 0x26, 0xa0, 0xbb, 0x1e, 0x6a, 0x4f, 0xbe, 0x32, 0xd5, 0x6d, 0x3b,
  0x7a, 0x67, 0x1c, 0xbf, 0x19, 0x0e, 0xa9, 0xbf, 0xe0, 0x2d, 0xef, 0x3b,
  0xb0, 0x00, 0xb8, 0xbc, 0xa9, 0xbe, 0x43, 0x3e, 0x8c, 0xb8, 0x38, 0x3f,
  0x46, 0xf7, 0x4a, 0x3f, 0xc9, 0xf5, 0x69, 0x3e, 0x07, 0x58, 0x1c, 0x3d,
  0x3b, 0x1b, 0x1e, 0xbd, 0xba, 0x67, 0xfd, 0x3d, 0x02, 0x47, 0x36, 0x3e,
  0xe7, 0xca, 0x4f, 0x3f, 0xc3, 0x21, 0xb6, 0x3f, 0xb8, 0x24, 0x89, 0xbe,
  0xa1, 0x54, 0x9d, 0xbf, 0xff, 0x4c, 0xa2, 0xbf, 0x1d, 0x11, 0x04, 0x3f,
  0xcb, 0x5e, 0xa6, 0xbf, 0x8a, 0xd6, 0x1f, 0x3f, 0x40, 0x69, 0x23, 0x3f,
  0x13, 0x2f, 0x67, 0x3f, 0xda, 0xfe, 0x8d, 0x3f, 0x61, 0x61, 0x3d, 0x3f,
  0xeb, 0x12, 0x4c, 0x3e, 0xee, 0x15, 0xdd, 0xbc, 0xa0, 0x64, 0x8c, 0x3e,
  0x63, 0x75, 0x43, 0x3e, 0xad, 0xf5, 0x06, 0xbe, 0x2f, 0x62, 0x32, 0x3e,
  0xc7, 0xa7, 0x65, 0xbe, 0x5d, 0xe2, 0x34, 0x3e, 0xd7, 0x22, 0x7a, 0x3d,
  0x7d, 0x3a, 0xd1, 0xbb, 0x6d, 0x25, 0x9f, 0xbe, 0x2c, 0x17, 0x24, 0x3e,
  0xa8, 0x27, 0x88, 0xbc, 0x64, 0xd3, 0x87, 0xbe, 0x5e, 0xc2, 0x72, 0x3e,
  0xfa, 0x52, 0xae, 0xbe, 0x03, 0x89, 0x7d, 0x3d, 0x69, 0xe5, 0x8d, 0xbe,
  0xf8, 0x22, 0x9d, 0xbe, 0xf6, 0xdb, 0x8c, 0x3d, 0xdf, 0x8d, 0x39, 0x3e,
  0x76, 0xfb, 0x78, 0x3e, 0x6f, 0x9c, 0x54, 0x3e, 0x84, 0xe6, 0x93, 0xbd,
  0xcc, 0x02, 0xab, 0x3e, 0xdb, 0x66, 0xa3, 0x3e, 0xb1, 0xcc, 0x42, 0xbe,
  0x7e, 0x51, 0x0e, 0xbc, 0xe6, 0xb1, 0x31, 0xbe, 0xbb, 0x11, 0x28, 0xbd,
  0x5f, 0xdd, 0x80, 0xbe, 0x1c, 0x39, 0xa6, 0xbe, 0xee, 0xce, 0x59, 0xbc,
  0xd5, 0xc5, 0x17, 0xbb, 0x5e, 0xdf, 0x33, 0xbe, 0xaa, 0xf1, 0xa7, 0xbd,
  0x61, 0x00, 0x7f, 0x3e, 0x45, 0x58, 0x11, 0x3e, 0x3e, 0xeb, 0x57, 0x3e,
  0x39, 0x5a, 0x97, 0x3c, 0x5e, 0x5c, 0xba, 0xbc, 0x25, 0x39, 0xf9, 0xbb,
  0x23, 0x69, 0x12, 0xbd, 0x3e, 0x5c, 0xa0, 0x3d, 0xfb, 0xb9, 0x59, 0xbe,
  0xf8, 0x68, 0xac, 0x3d, 0xe7, 0xb4, 0xa6, 0xbd, 0x65, 0x9a, 0xa6, 0x3b,
  0x3b, 0x31, 0x32, 0xbc, 0xde, 0x10, 0x56, 0x3e, 0xe4, 0x32, 0x5e, 0x3e,
  0x1a, 0x0d, 0x82, 0x3d, 0x4a, 0x1a, 0x3f, 0x3a, 0xd7, 0x65, 0x22, 0x3e,
  0x96, 0x1c, 0xce, 0x3c, 0x47, 0xf8, 0x72, 0xbe, 0x03, 0x61, 0x4f, 0x3d,
  0xb7, 0x36, 0xf9, 0xbd, 0x50, 0x0b, 0x9c, 0xbd, 0x3d, 0x44, 0x4f, 0x3e,
  0xc2, 0xe4, 0x1b, 0x3e, 0x70, 0xa6, 0xc7, 0x3d, 0x4a, 0x87, 0x11, 0xbe,
  0x22, 0xf8, 0x08, 0x3e, 0x03, 0xdb, 0x01, 0x3e, 0x0d, 0xed, 0x21, 0xbe,
  0x5b, 0x6a, 0x15, 0x3e, 0x59, 0x45, 0x99, 0xbe, 0xd6, 0xef, 0xb5, 0x3d,
  0x77, 0x4b, 0x4b, 0xbe, 0xc9, 0xd0, 0x44, 0xbd, 0xc6, 0x91, 0x59, 0xbe,
  0xdd, 0x51, 0x6c, 0xbe, 0x09, 0xf6, 0x00, 0x3d, 0x06, 0xab, 0x34, 0xbe,
  0xa0, 0x37, 0xe9, 0x3d, 0x27, 0xa1, 0x8d, 0x3e, 0x00, 0x7f, 0xc1, 0x3d,
  0xb7, 0x01, 0x07, 0xbe, 0x20, 0x90, 0x2e, 0xbe, 0x0f, 0x23, 0x27, 0x3c,
  0x65, 0xd4, 0xfe, 0x3d, 0x1d, 0x75, 0xc1, 0x3a, 0xe8, 0x5b, 0x0b, 0xbe,
  0xff, 0x03, 0x24, 0x3d, 0xf4, 0xb4, 0x2c, 0x3d, 0x68, 0x19, 0xd8, 0x3d,
  0x6d, 0xa7, 0x9f, 0xbd, 0x23, 0xad, 0x15, 0xbe, 0xf4, 0x47, 0xc1, 0xbb,
  0x6c, 0x46, 0x61, 0x3e, 0x15, 0xfa, 0x96, 0x3d, 0xa3, 0xa5, 0xf8, 0xbd,
  0xa6, 0xb4, 0x69, 0x3e, 0xd4, 0x0d, 0x94, 0x3e, 0x21, 0xbc, 0x48, 0xbf,
  0x6f, 0x15, 0x51, 0x3f, 0x81, 0x6d, 0x86, 0x3f, 0xe7, 0x3c, 0x9b, 0xbe,
  0xa4, 0xa4, 0xca, 0xbe, 0xd8, 0xe3, 0xe5, 0xbe, 0x65, 0x0e, 0x05, 0x3e,
  0xd3, 0x7d, 0x95, 0x3f, 0x6c, 0x3f, 0x1d, 0xbf, 0x87, 0x24, 0xd1, 0x3d,
  0x9d, 0x34, 0x40, 0x3d, 0x5d, 0x55, 0xbc, 0x3e, 0x8d, 0x95, 0x6d, 0x3f,
  0x11, 0x78, 0xd3, 0x3f, 0x4f, 0x69, 0x82, 0x3f, 0xfb, 0x2a, 0xe4, 0x3d,
  0xd6, 0x88, 0x64, 0x3d, 0xd1, 0x20, 0xba, 0x3d, 0x8e, 0x24, 0x97, 0xbf,
  0x7b, 0x91, 0x35, 0x3f, 0x4b, 0x12, 0xef, 0x3e, 0x24, 0x93, 0xbd, 0x3d,
  0xfc, 0xa4, 0xf6, 0x3b, 0x21, 0xc3, 0x09, 0xbe, 0x9f, 0x2b, 0xb2, 0x3f,
  0xd6, 0x67, 0xff, 0x3d, 0xdc, 0x59, 0x08, 0x3f, 0x30, 0x0c, 0x1d, 0xba,
  0x78, 0xca, 0x30, 0xbc, 0xf1, 0xc7, 0x73, 0xbd, 0x4b, 0x4d, 0xfd, 0x3e,
  0x95, 0x2f, 0xd8, 0xbd, 0x6c, 0x17, 0xb3, 0x3f, 0xbc, 0x26, 0x2c, 0x3f,
  0xeb, 0x3c, 0x1d, 0x3f, 0x98, 0xdd, 0x01, 0x3e, 0x35, 0x5a, 0x45, 0x3f,
  0x37, 0x2e, 0xa1, 0xbf, 0x30, 0x18, 0x59, 0x3f, 0x33, 0xce, 0xb8, 0x3e,
  0xfb, 0xea, 0xa6, 0x3f, 0xba, 0x3f, 0xdd, 0xbe, 0xd6, 0x77, 0xcf, 0x3e,
  0xb7, 0x5e, 0x97, 0xbd, 0x16, 0xfa, 0x5e, 0xbc, 0xf7, 0xd4, 0x24, 0x3d,
  0xe3, 0x5f, 0xf5, 0xbf, 0xa0, 0xe3, 0xc9, 0xbf, 0x61, 0x6d, 0x05, 0xc0,
  0x3e, 0x34, 0x57, 0x3e, 0xb5, 0x37, 0xdf, 0x3d, 0x3a, 0xd3, 0x71, 0x3d,
  0x90, 0x29, 0x1b, 0x3f, 0x8c, 0x82, 0x2a, 0xc0, 0x80, 0x39, 0xcf, 0xbf,
  0x47, 0x89, 0x3a, 0x3d, 0x7d, 0x01, 0x4d, 0xbe, 0x00, 0x40, 0x9a, 0xbe,
  0x7f, 0x2c, 0x6a, 0xbf, 0xb5, 0x5c, 0xdc, 0xbf, 0x62, 0xda, 0x9d, 0xbf,
  0xc4, 0x42, 0x5b, 0xbe, 0x59, 0x6e, 0xdd, 0x3d, 0xce, 0x49, 0xb9, 0x3d,
  0x3a, 0xf8, 0x79, 0x3f, 0xaa, 0x67, 0x97, 0xbf, 0x62, 0x5d, 0x06, 0x3f,
  0xb0, 0x44, 0x58, 0x3e, 0xc9, 0x6b, 0xd3, 0xbd, 0x2a, 0x54, 0x91, 0xbd,
  0xe9, 0x73, 0x55, 0xbf, 0xe2, 0xef, 0x56, 0xbf, 0xfe, 0x95, 0x85, 0xbf,
  0xa8, 0xcb, 0x46, 0x3e, 0x57, 0xbc, 0xf1, 0xbd, 0xa4, 0x65, 0xdc, 0xbd,
  0xa5, 0x69, 0x08, 0xbd, 0xe6, 0x0b, 0x55, 0x3f, 0xe1, 0x40, 0xd8, 0xbf,
  0xfb, 0x33, 0x09, 0xc0, 0xc1, 0xce, 0xd2, 0xbf, 0x18, 0x90, 0x2e, 0xbf,
  0x9b, 0x47, 0x03, 0xbf, 0x6b, 0x58, 0x9f, 0x3f, 0x30, 0xc4, 0x87, 0xbf,
  0x31, 0x30, 0x3d, 0xbf, 0x5f, 0xfd, 0x3b, 0xbe, 0xa9, 0xc0, 0x8b, 0xbe,
  0x00, 0x6d, 0x10, 0xbf, 0x16, 0xf3, 0x0f, 0x3c, 0xc4, 0x9e, 0x72, 0x3c,
  0x9b, 0xb6, 0x87, 0x3d, 0x73, 0xf8, 0x0d, 0xbf, 0x78, 0x73, 0xce, 0x3e,
  0x8e, 0xb1, 0xb5, 0x3e, 0x04, 0xd6, 0xe6, 0xbe, 0x95, 0xd0, 0xc7, 0xbe,
  0x43, 0x22, 0x0d, 0xbf, 0x6e, 0x97, 0xc1, 0x3e, 0x04, 0x2d, 0x31, 0x3f,
  0x72, 0xd6, 0xb6, 0xbf, 0x7c, 0x28, 0xfe, 0xbe, 0xd8, 0x28, 0xce, 0xbe,
  0xab, 0x5d, 0xc4, 0x3d, 0xa5, 0x63, 0xe5, 0x3e, 0xe9, 0xb0, 0x85, 0x3f,
  0x11, 0x61, 0xdd, 0xbe, 0x6c, 0xe6, 0x01, 0x3e, 0x7a, 0xfc, 0xd5, 0xbd,
  0xd4, 0x7c, 0x65, 0x3c, 0xcf, 0xd6, 0xbb, 0xbd, 0xf6, 0x3b, 0xe0, 0xbc,
  0x68, 0xbc, 0x85, 0xbf, 0x7b, 0x98, 0x5d, 0x3d, 0xf8, 0x93, 0x27, 0x3e,
  0x04, 0xdb, 0x10, 0xbb, 0xa2, 0x4c, 0x51, 0x3e, 0xb1, 0x7a, 0x1e, 0x3f,
  0xd3, 0x52, 0xf2, 0x3e, 0x0f, 0xc9, 0xc8, 0x3d, 0x65, 0xbd, 0x64, 0x3d,
  0xcc, 0x46, 0xe7, 0xbd, 0xaf, 0x43, 0x03, 0xbe, 0xfc, 0x81, 0xe4, 0x3e,
  0x1b, 0x3b, 0x5e, 0x3f, 0xd0, 0xb3, 0xb4, 0x3c, 0xe5, 0x22, 0x12, 0xbf,
  0x66, 0x02, 0x8b, 0xbf, 0x98, 0x52, 0xfd, 0x3d, 0xb7, 0x7c, 0x75, 0xbf,
  0x0c, 0x8c, 0xf6, 0x3e, 0xdc, 0xa2, 0x01, 0x3f, 0xb9, 0x27, 0x1b, 0x3f,
  0x66, 0x5c, 0x76, 0x3f, 0x69, 0x34, 0x68, 0x3f, 0x50, 0xbb, 0x63, 0x3d,
  0xe9, 0x08, 0xf2, 0x3d, 0xd0, 0xc0, 0xe0, 0x3e, 0xd8, 0x98, 0x0b, 0x3e,
  0x3c, 0x22, 0x0a, 0x3e, 0xe9, 0x97, 0xd6, 0x3a, 0x03, 0x91, 0x4e, 0x3d,
  0x40, 0x68, 0x73, 0x3e, 0xd1, 0x6d, 0x5c, 0x3e, 0x8d, 0xf9, 0x82, 0x3d,
  0xeb, 0x06, 0xaa, 0xbe, 0x47, 0xc5, 0x02, 0x3d, 0xd6, 0x32, 0x98, 0x3d,
  0x46, 0x6b, 0x0e, 0xbe, 0xed, 0xa8, 0xeb, 0xbd, 0xa7, 0xbb, 0x24, 0x3e,
  0x8f, 0xcb, 0x20, 0xbe, 0xf6, 0x1b, 0x37, 0x3e, 0x11, 0x78, 0xe8, 0xbd,
  0x37, 0xc7, 0xb3, 0x3d, 0xff, 0xa9, 0xa5, 0x3e, 0xea, 0xe9, 0x75, 0xbe,
  0x47, 0x3a, 0x95, 0xbe, 0xd3, 0x8a, 0xfe, 0x3d, 0x4c, 0xde, 0x16, 0xbe,
  0xd4, 0x36, 0x4a, 0xbe, 0xda, 0x83, 0x84, 0xbe, 0x04, 0x0b, 0x87, 0x3e,
  0x6c, 0xee, 0x40, 0x3e, 0x2f, 0x65, 0x60, 0x3e, 0x49, 0x4e, 0x8a, 0x3e,
  0xea, 0x31, 0x10, 0xbe, 0x61, 0x2f, 0x21, 0x3d, 0x7e, 0xbe, 0x76, 0xbd,
  0xf9, 0xe5, 0x4d, 0xbe, 0x48, 0x65, 0x5a, 0xbd, 0xc6, 0x07, 0x89, 0xbd,
  0x36, 0x24, 0xb3, 0xbd, 0x67, 0x08, 0x9d, 0xbe, 0x1b, 0x64, 0xd5, 0x3d,
  0x14, 0x00, 0xc3, 0x3d, 0xa1, 0xdd, 0x91, 0x3b, 0xd2, 0x0c, 0x13, 0xbd,
  0x44, 0xe0, 0xab, 0x3d, 0xa5, 0x5f, 0xc2, 0xbd, 0x62, 0xfc, 0x02, 0x3d,
  0xa9, 0x92, 0x36, 0x3e, 0x70, 0xbe, 0x97, 0x3e, 0x78, 0xc3, 0xe2, 0xbd,
  0x5f, 0x4c, 0xd7, 0x3d, 0x33, 0x72, 0x59, 0xbe, 0xf3, 0x76, 0x7a, 0x3c,
  0x22, 0xe3, 0xe6, 0x3b, 0x7f, 0xe5, 0x29, 0xbd, 0x6e, 0x89, 0xc4, 0xbb,
  0xb8, 0xc6, 0x91, 0x3d, 0x3a, 0xa0, 0x2f, 0xbe, 0x86, 0x2a, 0x45, 0x3c,
  0x61, 0x14, 0x8a, 0x3d, 0x83, 0x07, 0x4d, 0x3e, 0x59, 0xfb, 0x5c, 0xbe,
  0x93, 0x90, 0x2f, 0x3d, 0x13, 0x4f, 0x7f, 0xbe, 0x95, 0x29, 0x53, 0xbe,
  0x68, 0x57, 0x80, 0x3e, 0x5d, 0x9e, 0xda, 0xbd, 0xcc, 0xf4, 0x84, 0xbd,
  0x51, 0x29, 0x92, 0x3d, 0x40, 0x5c, 0x23, 0x3e, 0x1c, 0x16, 0xfd, 0xbd,
  0xa5, 0x2b, 0x39, 0x3e, 0x26, 0xcd, 0x9c, 0xbe, 0x81, 0x36, 0x40, 0xbe,
  0xc9, 0xb9, 0xf1, 0xbd, 0x0e, 0x09, 0x9c, 0x3e, 0xcf, 0x0e, 0x59, 0x3e,
  0xc6, 0x6b, 0x96, 0x3e, 0x9f, 0xb6, 0x5d, 0x3d, 0x4b, 0x14, 0x49, 0x3e,
  0xb4, 0x24, 0x87, 0xbd, 0x32, 0x32, 0xb8, 0xbd, 0xf2, 0x88, 0x75, 0x3e,
  0x8f, 0x0e, 0x50, 0xbe, 0x7c, 0x8b, 0x94, 0x3d, 0x8f, 0x88, 0xe0, 0xbd,
  0x99, 0x1a, 0x0d, 0xbe, 0xb2, 0x49, 0x45, 0xbd, 0xd5, 0x7f, 0x22, 0xbe,
  0x30, 0xed, 0x3a, 0xbe, 0xc3, 0x26, 0x54, 0xbc, 0x2b, 0x5d, 0x35, 0x3d,
  0xaf, 0x83, 0x90, 0x3e, 0x74, 0x0c, 0x4c, 0x3e, 0x94, 0xc6, 0x5a, 0x3e,
  0x07, 0x78, 0x87, 0x3e, 0x51, 0x23, 0x6c, 0xbe, 0xbb, 0x99, 0x2e, 0xbe,
  0xdc, 0xae, 0xa8, 0xbc, 0x31, 0xec, 0x39, 0x3d, 0xab, 0x10, 0x29, 0x3e,
  0x8b, 0x1c, 0x47, 0x3d, 0xac, 0xa6, 0xb7, 0x3b, 0x08, 0xc2, 0x34, 0xbf,
  0x4c, 0x34, 0x88, 0xbe, 0x9d, 0x17, 0x21, 0xbe, 0x2a, 0x81, 0x4d, 0x3e,
  0xc5, 0x43, 0xd3, 0xbe, 0x46, 0xfe, 0x05, 0xbf, 0x5e, 0xb0, 0xeb, 0xbe,
  0x65, 0x15, 0x1f, 0xbf, 0x6d, 0x12, 0x0e, 0x3d, 0x3e, 0x2d, 0x1e, 0xbe,
  0x4a, 0x56, 0xbb, 0x3d, 0xbb, 0x84, 0x85, 0x3e, 0xb0, 0x23, 0x36, 0xbf,
  0x7e, 0x8c, 0x8d, 0x3c, 0x1b, 0x3c, 0x97, 0x3d, 0xc5, 0x6a, 0x87, 0x3e,
  0x79, 0x9d, 0xfe, 0xbd, 0x23, 0xad, 0xbe, 0xbc, 0xb5, 0x50, 0x5e, 0xbe,
  0x39, 0x27, 0x95, 0xbe, 0x00, 0x6b, 0x58, 0x3e, 0x11, 0x68, 0x9f, 0xbe,
  0xae, 0x68, 0x73, 0xbd, 0xd7, 0xbf, 0x85, 0x3d, 0x0f, 0x45, 0x85, 0x3e,
  0x70, 0xdc, 0x67, 0xbe, 0x52, 0x12, 0xb1, 0xbe, 0x1a, 0x21, 0x31, 0xbf,
  0x31, 0x62, 0x17, 0xbe, 0xe0, 0xc8, 0x11, 0xbe, 0xe8, 0x2c, 0x93, 0x3e,
  0x9c, 0x3a, 0xe1, 0xbd, 0xf8, 0xfc, 0x9b, 0xbe, 0xe6, 0xc8, 0x04, 0xbe,
  0x69, 0x95, 0xde, 0x3d, 0x0f, 0x85, 0x10, 0xbf, 0x44, 0x66, 0x93, 0x3c,
  0x80, 0xc7, 0x08, 0x3d, 0xe3, 0x97, 0xa3, 0xbe, 0xc3, 0x59, 0x59, 0xbf,
  0x92, 0xdf, 0x1a, 0xbf, 0x71, 0x12, 0x80, 0xbf, 0x40, 0x80, 0xf6, 0x3d,
  0x97, 0xd1, 0x6a, 0xbe, 0x39, 0x9e, 0x9c, 0xbd, 0xa0, 0xb5, 0xa1, 0xbd,
  0xd3, 0xab, 0x92, 0xbf, 0x06, 0xfb, 0x4a, 0xbf, 0xfa, 0xf5, 0x08, 0xbf,
  0xf2, 0x4b, 0x1c, 0x3f, 0x20, 0xae, 0x3d, 0xbf, 0xac, 0xa7, 0x79, 0xbe,
  0xc2, 0x77, 0x96, 0xbf, 0x7c, 0x8d, 0x80, 0xbf, 0xcb, 0x95, 0x55, 0xbd,
  0x81, 0xf0, 0xf1, 0xbd, 0xdd, 0xd3, 0x22, 0xbd, 0x52, 0x0b, 0xaf, 0x3e,
  0x4f, 0xa0, 0xa7, 0xbe, 0xb8, 0x88, 0x28, 0x3f, 0x2a, 0x96, 0x18, 0xbe,
  0x49, 0xd2, 0x1a, 0x3e, 0x71, 0x37, 0x4a, 0xbe, 0xa5, 0xad, 0x3d, 0xbf,
  0xbd, 0x1a, 0xfe, 0xbe, 0x60, 0xea, 0x0d, 0xbf, 0xf4, 0x72, 0x0f, 0x3e,
  0x36, 0xda, 0x77, 0xbe, 0x59, 0x46, 0x48, 0xbe, 0xe3, 0x40, 0x93, 0xbe,
  0xc9, 0x8f, 0xa7, 0x3e, 0x50, 0x1e, 0xa0, 0xbf, 0x5b, 0x0b, 0x57, 0xbf,
  0xfc, 0xd7, 0xa4, 0xbf, 0xa9, 0xd7, 0xed, 0x3d, 0x7a, 0x9e, 0x09, 0x3e,
  0xdb, 0x89, 0xc2, 0x3e, 0x51, 0xa8, 0x4c, 0xbf, 0x03, 0x18, 0x3b, 0xbf,
  0x67, 0xe6, 0x15, 0xbf, 0xb1, 0x44, 0x16, 0xbf, 0x6f, 0x57, 0x1f, 0xbf,
  0x10, 0xaf, 0x0e, 0xbe, 0x02, 0xa8, 0x75, 0xbe, 0x8a, 0xcf, 0x8d, 0x3e,
  0x3b, 0xf5, 0x12, 0x3e, 0x24, 0x4e, 0xa8, 0x3d, 0x53, 0xa6, 0x56, 0x3c,
  0x8d, 0xaf, 0x30, 0xbe, 0xe8, 0x55, 0xb0, 0x3e, 0xf8, 0x96, 0xfe, 0xbd,
  0xb0, 0x0b, 0x84, 0x3d, 0xef, 0x38, 0x79, 0xbe, 0x4f, 0xc3, 0x1d, 0xbe,
  0x98, 0x07, 0x1f, 0x3e, 0x43, 0x4a, 0x36, 0xbd, 0xad, 0xaf, 0xec, 0x3c,
  0xb1, 0xca, 0x16, 0x3d, 0x10, 0x40, 0x63, 0xbe, 0xcd, 0x4a, 0x7b, 0x3e,
  0x82, 0xea, 0xaa, 0x3e, 0xe3, 0x60, 0x3f, 0x3e, 0x8b, 0xd5, 0xc3, 0x3d,
  0x31, 0xac, 0x47, 0xbe, 0x4c, 0x15, 0xa7, 0xbe, 0x77, 0xa6, 0x29, 0xbe,
  0x13, 0xc2, 0x87, 0xbe, 0x98, 0xe3, 0xac, 0x3d, 0x8a, 0xfc, 0x55, 0xbe,
  0x69, 0x77, 0x08, 0x3e, 0x19, 0x30, 0x2f, 0x3d, 0x39, 0x6c, 0x62, 0x3b,
  0x08, 0x32, 0x1e, 0xbe, 0x03, 0xf2, 0x0b, 0x3d, 0x72, 0xe9, 0xa3, 0x3e,
  0x4b, 0x0e, 0x50, 0x3e, 0x44, 0x7b, 0xba, 0xbc, 0x91, 0x65, 0xf9, 0x3d,
  0x61, 0xc7, 0xa7, 0xbe, 0x22, 0xb3, 0x5e, 0x3b, 0x5b, 0xee, 0x69, 0xbe,
  0xfa, 0x24, 0x37, 0x3e, 0x56, 0xf6, 0x6f, 0x3e, 0xfa, 0x98, 0x71, 0x3e,
  0x58, 0x00, 0xfb, 0x3d, 0xfd, 0xbf, 0x0c, 0x3e, 0xda, 0x48, 0x35, 0xbe,
  0x8b, 0x4f, 0x87, 0xbd, 0x2a, 0xeb, 0xa8, 0x3c, 0xde, 0x43, 0x0a, 0x3e,
  0x79, 0x58, 0xc0, 0x3d, 0x30, 0xcf, 0x0c, 0xbf, 0xbc, 0x5b, 0x3c, 0xbf,
  0x62, 0xab, 0x37, 0xbf, 0x64, 0x14, 0xab, 0x3c, 0xdf, 0x80, 0x04, 0xbb,
  0x85, 0xb0, 0x25, 0x3e, 0x9c, 0xb0, 0x2a, 0x3f, 0xdd, 0x49, 0x8b, 0xbf,
  0x44, 0xb1, 0x47, 0xbf, 0xc8, 0x79, 0xcf, 0xbe, 0x22, 0xbb, 0x11, 0x3f,
  0x92, 0x8e, 0x38, 0xbf, 0xb6, 0x71, 0xb4, 0xbe, 0xea, 0xfe, 0x94, 0xbf,
  0x6e, 0x7a, 0x6b, 0xbf, 0xb3, 0xcf, 0x37, 0x3e, 0x93, 0x99, 0xdc, 0xbc,
  0x0f, 0xab, 0x4e, 0xbe, 0xf1, 0x01, 0xf9, 0x3e, 0xae, 0xc7, 0x77, 0xbf,
  0x63, 0x8f, 0x02, 0x3f, 0xeb, 0x79, 0x75, 0xbe, 0x11, 0x8d, 0x85, 0xbd,
  0xbf, 0xa2, 0xc4, 0xbb, 0x19, 0x9d, 0x94, 0xbd, 0x7f, 0xec, 0x41, 0x3d,
  0xbd, 0xbc, 0x72, 0xbf, 0x1d, 0x35, 0xb6, 0xbd, 0x8f, 0x70, 0x5d, 0xbe,
  0xb2, 0x51, 0x0a, 0xbc, 0xcf, 0x2e, 0x1f, 0x3e, 0x28, 0x2a, 0x83, 0x3e,
  0xc4, 0xea, 0x6e, 0xbf, 0x6f, 0x9c, 0x4b, 0xbf, 0x2e, 0x93, 0x98, 0xbf,
  0xff, 0xaa, 0x81, 0x3d, 0x28, 0xb5, 0x7f, 0xbe, 0x22, 0x59, 0x17, 0x3f,
  0xfd, 0xd8, 0x31, 0xbf, 0x74, 0xa1, 0xb7, 0xbe, 0x17, 0xdd, 0xf3, 0x3c,
  0x99, 0x18, 0xf5, 0xbe, 0xac, 0x2f, 0x81, 0xbf, 0x4e, 0x9d, 0x77, 0xbd,
  0x8c, 0xcf, 0xbf, 0x3d, 0x35, 0x31, 0xe0, 0xbd, 0x6a, 0xfe, 0xff, 0xff,
  0x10, 0x00, 0x00, 0x00, 0x04, 0x00, 0x00, 0x00, 0x14, 0x00, 0x00, 0x00,
  0x30, 0x00, 0x00, 0x00, 0x02, 0x00, 0x00, 0x00, 0x21, 0x00, 0x00, 0x00,
  0x2e, 0x00, 0x00, 0x00, 0x1b, 0x00, 0x00, 0x00, 0x73, 0x65, 0x71, 0x75,
  0x65, 0x6e, 0x74, 0x69, 0x61, 0x6c, 0x5f, 0x33, 0x2f, 0x64, 0x65, 0x6e,
  0x73, 0x65, 0x5f, 0x36, 0x2f, 0x4d, 0x61, 0x74, 0x4d, 0x75, 0x6c, 0x00,
  0x64, 0xfe, 0xff, 0xff, 0x9a, 0xff, 0xff, 0xff, 0x04, 0x00, 0x00, 0x00,
  0x08, 0x00, 0x00, 0x00, 0x18, 0x0e, 0x1c, 0x3d, 0x0c, 0x0e, 0x1c, 0xbd,
  0xc2, 0xfe, 0xff, 0xff, 0x10, 0x00, 0x00, 0x00, 0x03, 0x00, 0x00, 0x00,
  0x10, 0x00, 0x00, 0x00, 0x3c, 0x00, 0x00, 0x00, 0x01, 0x00, 0x00, 0x00,
  0x02, 0x00, 0x00, 0x00, 0x2b, 0x00, 0x00, 0x00, 0x73, 0x65, 0x71, 0x75,
  0x65, 0x6e, 0x74, 0x69, 0x61, 0x6c, 0x5f, 0x33, 0x2f, 0x64, 0x65, 0x6e,
  0x73, 0x65, 0x5f, 0x37, 0x2f, 0x42, 0x69, 0x61, 0x73, 0x41, 0x64, 0x64,
  0x2f, 0x52, 0x65, 0x61, 0x64, 0x56, 0x61, 0x72, 0x69, 0x61, 0x62, 0x6c,
  0x65, 0x4f, 0x70, 0x00, 0x18, 0xff, 0xff, 0xff, 0x00, 0x00, 0x06, 0x00,
  0x08, 0x00, 0x04, 0x00, 0x06, 0x00, 0x00, 0x00, 0x04, 0x00, 0x00, 0x00,
  0x84, 0x00, 0x00, 0x00, 0x31, 0xb9, 0x60, 0xbf, 0xa6, 0xd5, 0x7a, 0x3b,
  0xc0, 0x8e, 0x09, 0x38, 0x8f, 0xa6, 0x84, 0x3a, 0x15, 0x93, 0xa3, 0xbc,
  0x1b, 0x82, 0x85, 0xbf, 0xd8, 0x1f, 0xb4, 0xbd, 0xfe, 0xa6, 0xb3, 0xbf,
  0xac, 0x93, 0xab, 0xbf, 0x3f, 0x6a, 0xc3, 0xbf, 0x7c, 0xb5, 0x48, 0xbd,
  0x69, 0xa6, 0x15, 0xbf, 0x7e, 0xe7, 0x0b, 0x3f, 0x7b, 0xfc, 0x91, 0x3f,
  0xc8, 0x16, 0x8b, 0xbd, 0x68, 0x09, 0x86, 0xbd, 0x55, 0x8e, 0x85, 0xbd,
  0x64, 0x92, 0x35, 0x3d, 0x00, 0x00, 0x00, 0x00, 0xe1, 0x17, 0xca, 0x3c,
  0x46, 0x4f, 0x7a, 0x3f, 0x68, 0xa2, 0x7e, 0xbf, 0x4b, 0xa8, 0x30, 0x3d,
  0x9e, 0x0c, 0xc8, 0x3d, 0xaf, 0x93, 0x9c, 0xbf, 0xb3, 0x18, 0xd4, 0x3f,
  0x0b, 0x86, 0x48, 0xbf, 0x0f, 0xa4, 0x86, 0x3d, 0xe4, 0xf6, 0x34, 0x3d,
  0x23, 0xd3, 0xba, 0x3e, 0xba, 0x61, 0x28, 0x3f, 0x4e, 0x65, 0x9b, 0x3d,
  0xd5, 0x01, 0x2b, 0x3f, 0xaa, 0xff, 0xff, 0xff, 0x10, 0x00, 0x00, 0x00,
  0x02, 0x00, 0x00, 0x00, 0x10, 0x00, 0x00, 0x00, 0x40, 0x00, 0x00, 0x00,
  0x01, 0x00, 0x00, 0x00, 0x21, 0x00, 0x00, 0x00, 0x2b, 0x00, 0x00, 0x00,
  0x73, 0x65, 0x71, 0x75, 0x65, 0x6e, 0x74, 0x69, 0x61, 0x6c, 0x5f, 0x33,
  0x2f, 0x64, 0x65, 0x6e, 0x73, 0x65, 0x5f, 0x36, 0x2f, 0x42, 0x69, 0x61,
  0x73, 0x41, 0x64, 0x64, 0x2f, 0x52, 0x65, 0x61, 0x64, 0x56, 0x61, 0x72,
  0x69, 0x61, 0x62, 0x6c, 0x65, 0x4f, 0x70, 0x00, 0x04, 0x00, 0x06, 0x00,
  0x04, 0x00, 0x00, 0x00, 0x00, 0x00, 0x0e, 0x00, 0x14, 0x00, 0x04, 0x00,
  0x00, 0x00, 0x08, 0x00, 0x0c, 0x00, 0x10, 0x00, 0x0e, 0x00, 0x00, 0x00,
  0x10, 0x00, 0x00, 0x00, 0x01, 0x00, 0x00, 0x00, 0x14, 0x00, 0x00, 0x00,
  0x24, 0x00, 0x00, 0x00, 0x02, 0x00, 0x00, 0x00, 0x01, 0x00, 0x00, 0x00,
  0x2e, 0x00, 0x00, 0x00, 0x0d, 0x00, 0x00, 0x00, 0x64, 0x65, 0x6e, 0x73,
  0x65, 0x5f, 0x36, 0x5f, 0x69, 0x6e, 0x70, 0x75, 0x74, 0x00, 0x00, 0x00,
  0xfc, 0xff, 0xff, 0xff, 0x04, 0x00, 0x04, 0x00, 0x04, 0x00, 0x00, 0x00
};
const int fall_model_data_len = 7692;
